#include "temperature_pred_mlp_model.h"

const unsigned char temperature_pred_mlp_tflite[] = {
  0x20, 0x00, 0x00, 0x00, 0x54, 0x46, 0x4c, 0x33, 0x00, 0x00, 0x00, 0x00, 
  0x14, 0x00, 0x20, 0x00, 0x1c, 0x00, 0x18, 0x00, 0x14, 0x00, 0x10, 0x00, 
  0x0c, 0x00, 0x00, 0x00, 0x08, 0x00, 0x04, 0x00, 0x14, 0x00, 0x00, 0x00, 
  0x1c, 0x00, 0x00, 0x00, 0x94, 0x00, 0x00, 0x00, 0xec, 0x00, 0x00, 0x00, 
  0xa0, 0x35, 0x00, 0x00, 0xb0, 0x35, 0x00, 0x00, 0x5c, 0x3f, 0x00, 0x00, 
  0x03, 0x00, 0x00, 0x00, 0x01, 0x00, 0x00, 0x00, 0x10, 0x00, 0x00, 0x00, 
  0x00, 0x00, 0x0a, 0x00, 0x10, 0x00, 0x0c, 0x00, 0x08, 0x00, 0x04, 0x00, 
  0x0a, 0x00, 0x00, 0x00, 0x0c, 0x00, 0x00, 0x00, 0x1c, 0x00, 0x00, 0x00, 
  0x3c, 0x00, 0x00, 0x00, 0x0f, 0x00, 0x00, 0x00, 0x73, 0x65, 0x72, 0x76, 
  0x69, 0x6e, 0x67, 0x5f, 0x64, 0x65, 0x66, 0x61, 0x75, 0x6c, 0x74, 0x00, 
  0x01, 0x00, 0x00, 0x00, 0x04, 0x00, 0x00, 0x00, 0x94, 0xff, 0xff, 0xff, 
  0x09, 0x00, 0x00, 0x00, 0x04, 0x00, 0x00, 0x00, 0x08, 0x00, 0x00, 0x00, 
  0x6f, 0x75, 0x74, 0x70, 0x75, 0x74, 0x5f, 0x30, 0x00, 0x00, 0x00, 0x00, 
  0x01, 0x00, 0x00, 0x00, 0x04, 0x00, 0x00, 0x00, 0x7e, 0xcc, 0xff, 0xff, 
  0x04, 0x00, 0x00, 0x00, 0x0b, 0x00, 0x00, 0x00, 0x69, 0x6e, 0x70, 0x75, 
  0x74, 0x5f, 0x6c, 0x61, 0x79, 0x65, 0x72, 0x00, 0x02, 0x00, 0x00, 0x00, 
  0x34, 0x00, 0x00, 0x00, 0x04, 0x00, 0x00, 0x00, 0xdc, 0xff, 0xff, 0xff, 
  0x0c, 0x00, 0x00, 0x00, 0x04, 0x00, 0x00, 0x00, 0x13, 0x00, 0x00, 0x00, 
  0x43, 0x4f, 0x4e, 0x56, 0x45, 0x52, 0x53, 0x49, 0x4f, 0x4e, 0x5f, 0x4d, 
  0x45, 0x54, 0x41, 0x44, 0x41, 0x54, 0x41, 0x00, 0x08, 0x00, 0x0c, 0x00, 
  0x08, 0x00, 0x04, 0x00, 0x08, 0x00, 0x00, 0x00, 0x0b, 0x00, 0x00, 0x00, 
  0x04, 0x00, 0x00, 0x00, 0x13, 0x00, 0x00, 0x00, 0x6d, 0x69, 0x6e, 0x5f, 
  0x72, 0x75, 0x6e, 0x74, 0x69, 0x6d, 0x65, 0x5f, 0x76, 0x65, 0x72, 0x73, 
  0x69, 0x6f, 0x6e, 0x00, 0x0d, 0x00, 0x00, 0x00, 0xb0, 0x34, 0x00, 0x00, 
  0xa8, 0x34, 0x00, 0x00, 0x08, 0x33, 0x00, 0x00, 0x20, 0x2b, 0x00, 0x00, 
  0x80, 0x29, 0x00, 0x00, 0x6c, 0x29, 0x00, 0x00, 0xcc, 0x27, 0x00, 0x00, 
  0xac, 0x00, 0x00, 0x00, 0xa4, 0x00, 0x00, 0x00, 0x9c, 0x00, 0x00, 0x00, 
  0x94, 0x00, 0x00, 0x00, 0x74, 0x00, 0x00, 0x00, 0x04, 0x00, 0x00, 0x00, 
  0x2a, 0xcd, 0xff, 0xff, 0x04, 0x00, 0x00, 0x00, 0x60, 0x00, 0x00, 0x00, 
  0x0c, 0x00, 0x00, 0x00, 0x08, 0x00, 0x0e, 0x00, 0x08, 0x00, 0x04, 0x00, 
  0x08, 0x00, 0x00, 0x00, 0x10, 0x00, 0x00, 0x00, 0x28, 0x00, 0x00, 0x00, 
  0x00, 0x00, 0x06, 0x00, 0x08, 0x00, 0x04, 0x00, 0x06, 0x00, 0x00, 0x00, 
  0x04, 0x00, 0x00, 0x00, 0x01, 0x00, 0x00, 0x00, 0xea, 0x03, 0x00, 0x00, 
  0x0c, 0x00, 0x18, 0x00, 0x14, 0x00, 0x10, 0x00, 0x0c, 0x00, 0x04, 0x00, 
  0x0c, 0x00, 0x00, 0x00, 0x46, 0xe9, 0x15, 0xda, 0xf0, 0xa9, 0xc6, 0x19, 
  0x02, 0x00, 0x00, 0x00, 0x02, 0x00, 0x00, 0x00, 0x04, 0x00, 0x00, 0x00, 
  0x06, 0x00, 0x00, 0x00, 0x32, 0x2e, 0x32, 0x30, 0x2e, 0x30, 0x00, 0x00, 
  0x96, 0xcd, 0xff, 0xff, 0x04, 0x00, 0x00, 0x00, 0x10, 0x00, 0x00, 0x00, 
  0x32, 0x2e, 0x31, 0x37, 0x2e, 0x30, 0x00, 0x00, 0x00, 0x00, 0x00, 0x00, 
  0x00, 0x00, 0x00, 0x00, 0x7c, 0xc2, 0xff, 0xff, 0x80, 0xc2, 0xff, 0xff, 
  0x84, 0xc2, 0xff, 0xff, 0xbe, 0xcd, 0xff, 0xff, 0x04, 0x00, 0x00, 0x00, 
  0x10, 0x27, 0x00, 0x00, 0xcf, 0x55, 0xd2, 0x34, 0x8e, 0x37, 0xd8, 0x33, 
  0xc4, 0x97, 0xc4, 0x01, 0x48, 0x81, 0x01, 0xc7, 0x2a, 0x37, 0xf7, 0x48, 
  0xad, 0x26, 0x0e, 0x48, 0xc2, 0x52, 0x0a, 0x9c, 0xe4, 0xfd, 0x1b, 0x23, 
  0x5a, 0xa8, 0x27, 0x1e, 0x9d, 0xac, 0x66, 0x30, 0x3a, 0xb5, 0x03, 0x23, 
  0xe7, 0x49, 0xb7, 0x14, 0x02, 0x3a, 0xa7, 0xfb, 0x33, 0xfb, 0xa9, 0x1d, 
  0x43, 0x0c, 0xc1, 0x48, 0x59, 0x63, 0x1b, 0x3f, 0xf4, 0x58, 0x44, 0xc7, 
  0x06, 0x09, 0x42, 0x2f, 0x22, 0x55, 0x71, 0x5d, 0xbd, 0xf7, 0x0a, 0x3b, 
  0xb3, 0x9f, 0xf5, 0x23, 0xfe, 0xaa, 0x4b, 0xa4, 0x8d, 0x47, 0xdb, 0x5d, 
  0xe4, 0x48, 0x5d, 0xb8, 0x42, 0xd8, 0xec, 0xa5, 0xc4, 0x18, 0x09, 0x0b, 
  0xf0, 0x19, 0xac, 0xc1, 0xe9, 0x45, 0x18, 0xcd, 0xc6, 0x9e, 0xd8, 0x0d, 
  0xd9, 0xa6, 0xb8, 0xa6, 0x4e, 0x05, 0xa3, 0xad, 0xf9, 0xad, 0xcd, 0xb6, 
  0xe6, 0x62, 0xa6, 0xd9, 0xf9, 0xd9, 0x8a, 0x40, 0x58, 0xf8, 0x6c, 0xe5, 
  0x23, 0xca, 0x5e, 0xe6, 0x06, 0x44, 0x32, 0xe9, 0xfb, 0xce, 0xc0, 0x8f, 
  0xb4, 0x60, 0x5b, 0x33, 0x10, 0xe9, 0x6b, 0x28, 0x54, 0x8f, 0xc6, 0x60, 
  0x4f, 0xdb, 0x24, 0xe7, 0x2e, 0xfd, 0x27, 0x61, 0x60, 0xbc, 0x57, 0x02, 
  0x6c, 0x81, 0xe6, 0xff, 0x33, 0x5d, 0x2b, 0x64, 0x61, 0x8e, 0x29, 0x31, 
  0x93, 0xc2, 0xee, 0x6f, 0x51, 0x50, 0x33, 0xf0, 0xa3, 0xfd, 0x3d, 0xdd, 
  0xe1, 0x69, 0x57, 0xb7, 0xaf, 0x50, 0x64, 0xad, 0x54, 0x7e, 0xef, 0x33, 
  0xc7, 0xd2, 0x22, 0xbb, 0x16, 0x30, 0x2b, 0x6e, 0x5c, 0xb0, 0x2a, 0x86, 
  0x2d, 0x51, 0xa2, 0x9a, 0xb1, 0x42, 0x61, 0xc5, 0x21, 0x50, 0xcf, 0xf6, 
  0x2b, 0x0a, 0x9a, 0xc3, 0x4e, 0x87, 0x35, 0xbd, 0x94, 0x74, 0x0c, 0x02, 
  0x54, 0x40, 0xf9, 0x50, 0xa2, 0xc3, 0x00, 0xae, 0xf8, 0xe2, 0x18, 0x3c, 
  0x21, 0x85, 0xb5, 0x67, 0x82, 0x27, 0x6c, 0x56, 0x91, 0xc2, 0x8c, 0x32, 
  0xdb, 0x02, 0x7b, 0x31, 0x97, 0x46, 0x2a, 0xfb, 0x6b, 0xb6, 0x00, 0x48, 
  0x10, 0xfc, 0x7a, 0x13, 0x86, 0x7f, 0x0f, 0x58, 0x29, 0xaa, 0x30, 0xed, 
  0xec, 0x46, 0x32, 0x4d, 0x38, 0xde, 0x5a, 0xb7, 0x78, 0x95, 0xfb, 0xa5, 
  0x14, 0xbf, 0x03, 0x74, 0x21, 0xf5, 0xf3, 0x76, 0x08, 0xbc, 0x48, 0x3b, 
  0x33, 0x9f, 0x53, 0x8b, 0xde, 0x2e, 0x74, 0x09, 0x7a, 0xcf, 0xae, 0xa5, 
  0xb3, 0xaa, 0x3c, 0x0d, 0x9b, 0xec, 0xe7, 0x9b, 0xa4, 0x1d, 0xaf, 0xd6, 
  0xfd, 0x09, 0x74, 0xcf, 0xb2, 0x4d, 0x52, 0x4a, 0x57, 0x24, 0xed, 0xb9, 
  0xb9, 0x70, 0x61, 0xc8, 0x40, 0x41, 0x73, 0xc0, 0xde, 0x2a, 0xe4, 0x72, 
  0x65, 0x7d, 0xc7, 0xe9, 0x23, 0x94, 0x4f, 0x81, 0xe1, 0x97, 0xa4, 0x85, 
  0x93, 0x96, 0x04, 0x5a, 0x16, 0x54, 0xf1, 0x4e, 0x4e, 0xcd, 0x2a, 0x41, 
  0x11, 0x8f, 0x07, 0x3f, 0xcd, 0x2f, 0xa0, 0x5a, 0x5d, 0x81, 0x1a, 0x37, 
  0xfd, 0x1c, 0xc6, 0xa5, 0x66, 0x2d, 0xbe, 0x6a, 0xaa, 0xac, 0x98, 0xe5, 
  0x4e, 0x78, 0x0b, 0x91, 0x93, 0x12, 0xf2, 0xc1, 0xcb, 0x10, 0xff, 0x36, 
  0xb0, 0xce, 0x32, 0xc4, 0x1f, 0x06, 0x98, 0xc3, 0x9f, 0x93, 0x4e, 0x93, 
  0x96, 0x6b, 0xa5, 0x32, 0x3a, 0x4a, 0x0d, 0xf0, 0xf7, 0x3c, 0xf1, 0xd4, 
  0x10, 0x06, 0x1f, 0xf9, 0xa5, 0x5c, 0xa5, 0xf3, 0x94, 0x84, 0xef, 0x40, 
  0x2f, 0x26, 0xc3, 0x05, 0x58, 0xc1, 0x20, 0x76, 0x19, 0x7c, 0x42, 0x42, 
  0xea, 0x4c, 0xee, 0x3d, 0xd0, 0xe9, 0x46, 0xf0, 0x1f, 0x6a, 0x0a, 0x09, 
  0x9f, 0xfc, 0xed, 0xae, 0xe1, 0x06, 0x8e, 0x64, 0xca, 0x88, 0x08, 0xd1, 
  0xff, 0x10, 0x6b, 0x47, 0x75, 0xa5, 0x9a, 0x9d, 0x87, 0xd0, 0x92, 0xb0, 
  0x76, 0xea, 0x3d, 0xa5, 0xd4, 0x9a, 0x29, 0x9d, 0xdc, 0x2a, 0xb4, 0x5d, 
  0x21, 0x6d, 0x5a, 0x15, 0x3c, 0xc9, 0x93, 0x2f, 0xdc, 0x36, 0x28, 0x57, 
  0xc5, 0xce, 0x42, 0xfc, 0x69, 0x11, 0x6c, 0x24, 0xce, 0x68, 0xe3, 0xd5, 
  0x8e, 0x4a, 0x24, 0x08, 0xc4, 0xa4, 0x59, 0x81, 0x74, 0xe4, 0x0c, 0x9a, 
  0x94, 0xe0, 0x16, 0x6f, 0x6f, 0xb3, 0x50, 0xb3, 0x8e, 0x1e, 0x3d, 0x67, 
  0xe7, 0xe0, 0x7f, 0x94, 0x6d, 0x87, 0x01, 0x62, 0xb2, 0xe5, 0x6c, 0x9b, 
  0x2e, 0x75, 0x26, 0x52, 0x25, 0x4c, 0x02, 0x1b, 0xd8, 0x9b, 0x0f, 0x86, 
  0xa3, 0x0a, 0xaf, 0x07, 0xaa, 0x99, 0x1c, 0x9b, 0x3c, 0xad, 0xa1, 0xdd, 
  0xe8, 0x8f, 0x3e, 0x0b, 0xa7, 0x56, 0x19, 0xa6, 0x00, 0x49, 0x1f, 0xc5, 
  0x52, 0xea, 0x15, 0x6f, 0xf2, 0x66, 0x7b, 0x57, 0x49, 0x97, 0x3d, 0xbd, 
  0xe3, 0x1b, 0x29, 0x4c, 0x75, 0xe9, 0x0f, 0x63, 0x5e, 0xad, 0xf2, 0xee, 
  0x81, 0x8b, 0x14, 0x57, 0xc8, 0xb7, 0xec, 0xcd, 0xed, 0xb7, 0x39, 0x5f, 
  0x85, 0xfd, 0x36, 0x74, 0x42, 0xda, 0xc1, 0xbb, 0x49, 0x37, 0xcc, 0x63, 
  0x36, 0x1d, 0x3c, 0xfa, 0x5e, 0x12, 0xae, 0xb6, 0xc4, 0xe0, 0x15, 0xf9, 
  0xd0, 0xc2, 0x8d, 0xcd, 0x10, 0xe8, 0x10, 0x85, 0xf8, 0xb1, 0x0b, 0xd3, 
  0x8f, 0x6e, 0xe6, 0x1a, 0x5a, 0xa6, 0x87, 0xe6, 0xbf, 0x47, 0x1b, 0x14, 
  0x2a, 0x44, 0xc8, 0x72, 0xab, 0xe0, 0x58, 0xbe, 0x4f, 0x00, 0x7a, 0x79, 
  0xd6, 0x7c, 0x2c, 0x91, 0xd6, 0x81, 0xb2, 0x78, 0xab, 0xf0, 0xc1, 0x33, 
  0xb2, 0x1e, 0x5d, 0x9b, 0xd6, 0x2a, 0x96, 0x45, 0x4c, 0x3e, 0xab, 0xac, 
  0x3d, 0x51, 0x4f, 0x43, 0x79, 0xb2, 0x8f, 0xc1, 0x8e, 0xd1, 0x5f, 0x18, 
  0x36, 0xb0, 0xdd, 0x5a, 0x22, 0x3c, 0x13, 0xb3, 0x4c, 0xa5, 0xf1, 0xd4, 
  0x78, 0xaa, 0x56, 0x0c, 0xc9, 0x7b, 0x89, 0xb7, 0xa5, 0xa8, 0x1c, 0xcf, 
  0xaa, 0xa9, 0x39, 0x5d, 0x87, 0x39, 0x49, 0xd6, 0xab, 0xf3, 0x83, 0x69, 
  0x2a, 0xc2, 0xf8, 0xe2, 0x03, 0x9f, 0x28, 0x62, 0xc2, 0x30, 0x98, 0xf2, 
  0x91, 0x92, 0xe3, 0x96, 0x25, 0xe4, 0x51, 0x8b, 0x3f, 0xfd, 0xe8, 0x53, 
  0xf4, 0xfb, 0xd1, 0xa0, 0x16, 0xfb, 0x26, 0x14, 0xab, 0x73, 0x77, 0x85, 
  0x19, 0x9d, 0xdd, 0x1e, 0x11, 0xa0, 0x44, 0x71, 0xbe, 0x67, 0xac, 0x7a, 
  0x86, 0x00, 0x91, 0xff, 0xfa, 0x82, 0x3b, 0xd5, 0xbe, 0xf1, 0x1b, 0x59, 
  0x89, 0xfa, 0x48, 0x56, 0x9e, 0x60, 0xf1, 0xf9, 0x33, 0xc8, 0xab, 0x45, 
  0x1f, 0x82, 0x4f, 0x13, 0x06, 0x65, 0xaa, 0xe0, 0xb8, 0x9c, 0xb8, 0x36, 
  0x50, 0x38, 0x85, 0x59, 0xc2, 0x52, 0xe8, 0x02, 0x13, 0x5a, 0x61, 0xbc, 
  0xee, 0xb0, 0xd0, 0x99, 0xf1, 0xc8, 0x81, 0x9f, 0x06, 0x89, 0xe2, 0x65, 
  0x7e, 0x32, 0x3d, 0x7b, 0xc9, 0x19, 0x89, 0x34, 0xe8, 0x76, 0xf1, 0x46, 
  0xc3, 0x8c, 0xbe, 0xf6, 0xc2, 0x11, 0x81, 0x36, 0xa7, 0xb3, 0x25, 0xae, 
  0x16, 0xb4, 0x52, 0x0f, 0x61, 0x93, 0x70, 0xd7, 0xe2, 0xc1, 0x26, 0x25, 
  0x75, 0xd3, 0x4f, 0xcc, 0x87, 0xf2, 0x7d, 0x69, 0x19, 0x23, 0x7a, 0xc2, 
  0x99, 0xd9, 0xe3, 0x50, 0xd6, 0x62, 0x1f, 0xfe, 0xd4, 0x0f, 0x1b, 0xf3, 
  0xd1, 0x13, 0x9b, 0x6b, 0xc5, 0x91, 0x5a, 0xd2, 0xfc, 0xb4, 0x11, 0x2d, 
  0x30, 0xb7, 0x54, 0xca, 0xde, 0x5f, 0xfb, 0x12, 0x74, 0xbd, 0x51, 0xf3, 
  0x5b, 0xbe, 0xe4, 0x79, 0x5d, 0x63, 0x9e, 0xd0, 0x45, 0x5e, 0x41, 0xbf, 
  0xdd, 0xc5, 0xbe, 0xd8, 0x69, 0x9c, 0x2a, 0xf8, 0xea, 0xa5, 0x0f, 0x65, 
  0x54, 0xb5, 0x19, 0xcc, 0x97, 0x3c, 0x97, 0x2e, 0x66, 0x32, 0xed, 0x87, 
  0x75, 0x6f, 0x66, 0xc2, 0x07, 0x89, 0x91, 0x2d, 0x7b, 0xc7, 0x14, 0xbc, 
  0x04, 0xd3, 0x7b, 0x02, 0x5c, 0x3e, 0xa7, 0xc0, 0xfd, 0x16, 0x60, 0x25, 
  0xb8, 0xc0, 0x0c, 0x15, 0x67, 0x44, 0xf7, 0x91, 0x5c, 0xca, 0x5e, 0x51, 
  0x58, 0xce, 0x8a, 0x62, 0x88, 0x48, 0x91, 0x0f, 0x6a, 0x4a, 0xfd, 0xb7, 
  0x76, 0x22, 0x2d, 0xa2, 0xbb, 0x82, 0x29, 0xfe, 0x0a, 0x9b, 0xcc, 0x1e, 
  0xc2, 0xec, 0x37, 0xdb, 0xdf, 0xcf, 0x3b, 0x46, 0x22, 0xf8, 0xca, 0x81, 
  0x8f, 0xa7, 0x79, 0x39, 0xab, 0xec, 0x94, 0x0f, 0xd9, 0xa5, 0x55, 0xcd, 
  0x36, 0x3a, 0x36, 0xcc, 0xe6, 0x8b, 0x31, 0x29, 0x71, 0xb5, 0xc7, 0x6a, 
  0xec, 0xe0, 0x72, 0xd1, 0x07, 0xfc, 0x05, 0x51, 0x82, 0xa5, 0x88, 0xb1, 
  0x5d, 0xef, 0x39, 0x39, 0x86, 0xc2, 0x8e, 0x1d, 0x0c, 0x5b, 0x4a, 0xb3, 
  0xa1, 0xab, 0x81, 0xe0, 0x68, 0xc3, 0x7d, 0x77, 0x30, 0x0f, 0x5c, 0x17, 
  0x8f, 0x65, 0x61, 0xe3, 0x2a, 0x8a, 0x3d, 0xd5, 0xae, 0xa5, 0xdf, 0x27, 
  0x83, 0x41, 0x71, 0xdb, 0xdf, 0xa0, 0x07, 0x90, 0x95, 0x0c, 0xf1, 0x93, 
  0x4b, 0x5a, 0x45, 0xec, 0x05, 0xf7, 0x16, 0x0e, 0xe9, 0xc9, 0x83, 0x8b, 
  0x9e, 0x52, 0xf3, 0xf4, 0xdc, 0xf9, 0xdc, 0x77, 0xe9, 0xcd, 0x88, 0x8e, 
  0xad, 0x1b, 0x44, 0x2d, 0xf2, 0xfe, 0x22, 0xa7, 0xea, 0x04, 0x99, 0xfb, 
  0x17, 0xb6, 0x77, 0x3a, 0x04, 0x0b, 0x26, 0xf4, 0xf3, 0xd7, 0x7c, 0x51, 
  0x4d, 0x64, 0x45, 0xa6, 0xbe, 0xaa, 0xac, 0x01, 0xbf, 0x0d, 0x01, 0x00, 
  0xd4, 0x96, 0x13, 0xee, 0xbb, 0xcc, 0x5d, 0x4c, 0xd4, 0x9d, 0xf3, 0x46, 
  0x92, 0x3b, 0x79, 0xbc, 0xac, 0xf6, 0xfc, 0xc8, 0xf7, 0x9e, 0x66, 0x7f, 
  0x35, 0x20, 0xc3, 0xa3, 0x4c, 0xc1, 0xb0, 0xf8, 0x21, 0x30, 0x5a, 0x65, 
  0x45, 0xfe, 0x6e, 0x57, 0xd0, 0x21, 0x91, 0x0d, 0xeb, 0x78, 0xe7, 0xdd, 
  0xd0, 0x3a, 0xc0, 0x09, 0x48, 0xa6, 0x73, 0x7d, 0xc5, 0xdc, 0x05, 0xe8, 
  0x58, 0x52, 0x5c, 0x27, 0x37, 0x66, 0xb5, 0xa1, 0x97, 0xdb, 0x25, 0x81, 
  0x8f, 0x15, 0x14, 0x41, 0x53, 0xf8, 0x33, 0xd3, 0x7e, 0xda, 0xca, 0xb2, 
  0xad, 0x3b, 0x60, 0x9a, 0x5d, 0x5a, 0xb8, 0xf3, 0x5d, 0x4c, 0x45, 0xeb, 
  0xba, 0x27, 0x3f, 0xca, 0xdd, 0x65, 0xc8, 0xa1, 0x49, 0xa7, 0xf7, 0xf2, 
  0x39, 0x72, 0xab, 0x71, 0x40, 0x67, 0x7f, 0x05, 0x88, 0xcb, 0xca, 0x65, 
  0xd0, 0x4b, 0xcc, 0xd3, 0xce, 0xf8, 0x1d, 0x20, 0x10, 0xee, 0x2d, 0xd2, 
  0x63, 0x06, 0xea, 0x35, 0x1f, 0xf0, 0x99, 0xb6, 0x8a, 0x70, 0x53, 0x6b, 
  0x9c, 0x18, 0x16, 0x23, 0x39, 0x7c, 0x08, 0x6e, 0xed, 0x07, 0xd0, 0x88, 
  0xa5, 0xd7, 0xb8, 0x03, 0xad, 0xb0, 0xd9, 0x3c, 0xfd, 0x22, 0xe5, 0x66, 
  0x13, 0xc6, 0xa9, 0xf8, 0x28, 0xf1, 0x0d, 0x46, 0x86, 0x21, 0x3b, 0x81, 
  0xc3, 0xbc, 0x60, 0x8d, 0x46, 0x9c, 0x27, 0x79, 0x27, 0xf6, 0xf4, 0x17, 
  0xde, 0x68, 0xfe, 0x28, 0xb8, 0x8d, 0x42, 0xa9, 0xd8, 0x2d, 0x87, 0x18, 
  0x9d, 0x12, 0xc8, 0x39, 0x4e, 0x97, 0xc2, 0x31, 0x9f, 0xf8, 0x75, 0x11, 
  0xe9, 0xb1, 0xb3, 0xbf, 0x5d, 0xe0, 0xf7, 0xf3, 0x2f, 0x15, 0x6f, 0x83, 
  0xf1, 0x2b, 0x62, 0x87, 0x7a, 0x55, 0x8a, 0xa8, 0x3c, 0x1d, 0x8b, 0xde, 
  0x5c, 0x90, 0xcf, 0xf5, 0x34, 0x2c, 0xf0, 0x41, 0x38, 0x15, 0x8b, 0xff, 
  0x74, 0xc4, 0x39, 0x1c, 0xd7, 0xe2, 0x60, 0xbc, 0xa1, 0xa5, 0x0e, 0x16, 
  0x11, 0x48, 0x4a, 0x8a, 0x1a, 0x36, 0x77, 0x7f, 0x52, 0x47, 0xc3, 0x41, 
  0x2a, 0x60, 0xee, 0x12, 0x6e, 0x8c, 0xa2, 0xb5, 0x6c, 0x7d, 0x33, 0x85, 
  0x34, 0x1b, 0x6e, 0xc0, 0x65, 0x5b, 0xe0, 0xee, 0x82, 0x8e, 0x7e, 0xd3, 
  0xe6, 0x3d, 0x89, 0x1b, 0x4e, 0xf6, 0x50, 0x2b, 0xe1, 0x8c, 0xf0, 0x1d, 
  0x27, 0x19, 0x30, 0x2c, 0x74, 0x94, 0x23, 0xb0, 0xae, 0x84, 0x88, 0x9a, 
  0x75, 0x3b, 0x78, 0x75, 0x1a, 0xc3, 0x9a, 0xe8, 0x69, 0xac, 0xff, 0x62, 
  0xfa, 0x8e, 0x25, 0x8c, 0x3f, 0x34, 0x62, 0xf1, 0xbe, 0xc9, 0x63, 0xa1, 
  0x5a, 0x8c, 0x62, 0xd0, 0x9e, 0xf0, 0xf4, 0x12, 0x96, 0x33, 0x7a, 0xf1, 
  0xc2, 0x7f, 0x4a, 0xf7, 0x9f, 0xcd, 0x4c, 0x3c, 0xd5, 0x68, 0x03, 0xfa, 
  0x71, 0x4b, 0x20, 0xc6, 0x30, 0xd3, 0x83, 0x1a, 0x6a, 0x7a, 0x82, 0xe4, 
  0x7a, 0x54, 0xa3, 0xbc, 0x6a, 0x38, 0x4e, 0xb7, 0x3a, 0xe2, 0x2b, 0x29, 
  0x08, 0xf7, 0x70, 0x09, 0x00, 0xd9, 0x92, 0x71, 0xc1, 0x5b, 0xe1, 0x10, 
  0x21, 0xc4, 0x9b, 0x52, 0x0d, 0x6d, 0xa9, 0xae, 0x18, 0x32, 0x4a, 0x03, 
  0xc6, 0xca, 0x36, 0x8e, 0x4c, 0xde, 0x8b, 0x4e, 0x52, 0x87, 0x70, 0x71, 
  0x81, 0x17, 0xb0, 0x7e, 0x3f, 0x14, 0x4a, 0xa2, 0x82, 0x21, 0x54, 0x59, 
  0x60, 0xf0, 0x95, 0xd9, 0xd7, 0x38, 0xde, 0x02, 0xab, 0xee, 0x9c, 0x0e, 
  0xed, 0x8f, 0x32, 0x28, 0x4b, 0xaa, 0x3e, 0x29, 0x7e, 0xb0, 0x14, 0xd2, 
  0xd3, 0xc9, 0x00, 0x6e, 0xb9, 0x02, 0x15, 0xa9, 0xbf, 0x2e, 0xa2, 0x71, 
  0xbc, 0x5d, 0x47, 0x68, 0x02, 0xee, 0xd5, 0x39, 0x0f, 0xd7, 0x0e, 0xf9, 
  0x16, 0x4d, 0xed, 0x6d, 0x25, 0xfe, 0x52, 0xa8, 0x38, 0x75, 0x4c, 0x53, 
  0x96, 0xd0, 0x74, 0xa3, 0xb9, 0x7f, 0xb0, 0xe3, 0x47, 0x24, 0x2f, 0xee, 
  0xbf, 0xe9, 0x4a, 0x97, 0x6a, 0x0d, 0x5f, 0xc1, 0xe9, 0xd3, 0x97, 0x5d, 
  0x6d, 0xb0, 0xde, 0xfd, 0x05, 0x56, 0x26, 0x4a, 0xc6, 0x64, 0x30, 0xa4, 
  0x6d, 0xcd, 0xff, 0x2a, 0x7c, 0xcd, 0xb3, 0x42, 0xf1, 0xfb, 0x95, 0x33, 
  0xd0, 0xe2, 0x76, 0x76, 0x1d, 0x0f, 0x97, 0x5f, 0x6f, 0x0c, 0xad, 0x44, 
  0xef, 0xd5, 0x17, 0x50, 0x58, 0x42, 0xe9, 0x08, 0xf4, 0xe8, 0xf1, 0x34, 
  0x0f, 0xdd, 0x66, 0xd9, 0x61, 0x25, 0x2d, 0x2f, 0x2f, 0x65, 0xc2, 0x63, 
  0x54, 0x3f, 0x0a, 0xcc, 0x41, 0x56, 0xd9, 0xcf, 0xd5, 0xff, 0x11, 0xbb, 
  0x24, 0x52, 0x21, 0xa4, 0x16, 0xcc, 0x78, 0x17, 0xcd, 0x52, 0x3a, 0xe5, 
  0xff, 0x33, 0xdd, 0x61, 0x2e, 0x3a, 0xb2, 0x1d, 0x0e, 0xa6, 0xda, 0xb2, 
  0xaf, 0x46, 0x96, 0x3a, 0xce, 0x43, 0x1a, 0xe7, 0xd8, 0x64, 0xaf, 0xa4, 
  0x79, 0xdd, 0xa9, 0x07, 0x18, 0x7f, 0x12, 0x57, 0x3a, 0x0b, 0x51, 0x56, 
  0xcc, 0x39, 0x51, 0x71, 0x3a, 0xdd, 0xfe, 0x5b, 0x06, 0x2b, 0xf1, 0xe7, 
  0xa9, 0xee, 0x5d, 0x1f, 0x00, 0x20, 0xbb, 0xd2, 0xc7, 0xee, 0x21, 0x1a, 
  0x2a, 0xf8, 0xad, 0x09, 0xec, 0x60, 0xc2, 0xfd, 0xc4, 0x17, 0xbc, 0x0e, 
  0xce, 0xd3, 0xec, 0x2a, 0xeb, 0x6a, 0xef, 0xbf, 0xd9, 0xd7, 0xc6, 0x29, 
  0x59, 0x50, 0x0d, 0x47, 0x1f, 0xa8, 0x39, 0xe0, 0xe8, 0x0a, 0xcf, 0xf5, 
  0x2b, 0xea, 0x01, 0x75, 0xb0, 0x36, 0xe6, 0xc4, 0xce, 0xe8, 0xb7, 0xc6, 
  0xda, 0x61, 0x25, 0x14, 0xd7, 0x6b, 0xd7, 0x65, 0x56, 0x6a, 0x43, 0x73, 
  0xcf, 0xe9, 0xe3, 0x2f, 0x7f, 0x0a, 0xd1, 0x9e, 0xf7, 0x56, 0xcd, 0x02, 
  0x51, 0x52, 0x35, 0x56, 0xde, 0x52, 0xb3, 0x33, 0xeb, 0xe0, 0x75, 0xc8, 
  0xc8, 0xd4, 0xfe, 0x30, 0xda, 0xf0, 0x39, 0x45, 0x12, 0x46, 0x14, 0xc3, 
  0x8a, 0xb1, 0x83, 0xe7, 0x3b, 0x50, 0xab, 0xbd, 0xda, 0x14, 0xec, 0x4b, 
  0x04, 0x19, 0x61, 0xc0, 0x07, 0x52, 0x5c, 0x07, 0x3c, 0x8e, 0x2f, 0x69, 
  0x57, 0xfa, 0x44, 0x81, 0x7e, 0x3d, 0xf7, 0xd1, 0xd3, 0x6f, 0xe8, 0xf8, 
  0x83, 0xb2, 0x30, 0xb1, 0xe3, 0x82, 0x13, 0x2f, 0xa1, 0x43, 0xb8, 0xa2, 
  0x95, 0xa9, 0xe6, 0x6b, 0xe1, 0x90, 0xff, 0x6b, 0x19, 0xcc, 0xfa, 0xb0, 
  0x11, 0x79, 0xa0, 0x5a, 0xd1, 0x04, 0x21, 0xb3, 0xb1, 0x5f, 0x32, 0x5a, 
  0x1f, 0xc4, 0x67, 0xe0, 0x81, 0x40, 0xd2, 0xd2, 0xb4, 0x2c, 0x00, 0x27, 
  0x11, 0xe1, 0xfb, 0xc5, 0xc5, 0x7a, 0x45, 0x5b, 0xbb, 0x63, 0x34, 0xbb, 
  0x2c, 0xfe, 0x8b, 0xdd, 0xc3, 0x2e, 0x54, 0xb2, 0x4f, 0xd3, 0x6b, 0x0a, 
  0xa8, 0xc0, 0x6b, 0x97, 0x0e, 0xdc, 0xa5, 0xc3, 0x38, 0x62, 0x69, 0xae, 
  0xa8, 0xf6, 0x6c, 0x3f, 0x02, 0xb8, 0xee, 0x7f, 0xc8, 0x69, 0xeb, 0xc4, 
  0xcc, 0x9c, 0xea, 0xb6, 0xb1, 0x64, 0x1a, 0xf9, 0x32, 0xc6, 0xb5, 0x24, 
  0x91, 0x6e, 0x27, 0xf4, 0x41, 0x3d, 0x96, 0xb1, 0x16, 0xf5, 0x1f, 0x6c, 
  0xb8, 0x6b, 0x11, 0xf8, 0xd6, 0x36, 0xe3, 0x16, 0xf7, 0x05, 0x45, 0x71, 
  0xf2, 0x72, 0xee, 0x17, 0x6f, 0xd8, 0xec, 0xef, 0xb5, 0x4a, 0xdb, 0x2d, 
  0x7c, 0x1c, 0xe8, 0xed, 0x65, 0xa5, 0xe1, 0x9d, 0x0b, 0x07, 0xb3, 0xdf, 
  0xa9, 0x36, 0x2f, 0xf2, 0xa1, 0x59, 0x52, 0x56, 0xbd, 0xf8, 0x5a, 0x67, 
  0x0f, 0x9a, 0x3a, 0xcb, 0x35, 0x3e, 0x9e, 0x5b, 0x6e, 0x55, 0x0a, 0x6d, 
  0x81, 0x3b, 0xc4, 0x8e, 0xbb, 0xfa, 0x1f, 0x1c, 0xd3, 0xf0, 0xae, 0xae, 
  0xda, 0xc0, 0xc4, 0xb8, 0xab, 0x83, 0x55, 0xf5, 0x76, 0xfb, 0x60, 0x48, 
  0xda, 0xc2, 0x66, 0xb1, 0x02, 0xc3, 0x9e, 0x9f, 0x08, 0x3a, 0x2d, 0xed, 
  0x0d, 0xa6, 0x86, 0x94, 0x5f, 0xbc, 0x61, 0xd9, 0xf0, 0x48, 0x35, 0x20, 
  0x67, 0x0a, 0x26, 0x68, 0xae, 0xe8, 0x75, 0xa0, 0x82, 0x8b, 0x7c, 0x7b, 
  0x85, 0x10, 0x96, 0x10, 0x7b, 0x09, 0x1b, 0x40, 0xeb, 0xcb, 0xc3, 0x16, 
  0xcf, 0x8c, 0x6f, 0x7b, 0xca, 0x67, 0x3e, 0x6d, 0xd7, 0xcc, 0x7a, 0xcd, 
  0x7b, 0xb9, 0x00, 0x39, 0x73, 0x31, 0xe8, 0x6b, 0x02, 0xe5, 0xdf, 0x28, 
  0x5d, 0x81, 0x3a, 0xc5, 0x39, 0x5e, 0x46, 0x8a, 0x8f, 0x43, 0xf8, 0xed, 
  0xb4, 0x78, 0x07, 0x82, 0x90, 0xc3, 0x8f, 0x67, 0x46, 0x03, 0xce, 0xf8, 
  0x41, 0x3e, 0xa1, 0xb9, 0x2c, 0x2d, 0x8b, 0x98, 0xcd, 0xe2, 0x1d, 0xb3, 
  0x67, 0x5b, 0xa7, 0x41, 0xcb, 0x32, 0x89, 0x5a, 0x72, 0x0a, 0x97, 0x43, 
  0x4d, 0x74, 0x3e, 0x34, 0x4e, 0x40, 0x5b, 0x8e, 0x38, 0x0a, 0xef, 0x65, 
  0x2f, 0x14, 0x0d, 0x35, 0xa2, 0x89, 0x94, 0x25, 0x03, 0xbf, 0x11, 0x8b, 
  0xb6, 0xde, 0x37, 0xb8, 0xa1, 0xd7, 0xa1, 0x3c, 0x43, 0x63, 0xf0, 0x6a, 
  0x65, 0x15, 0x41, 0xee, 0xa1, 0x85, 0xe1, 0x71, 0x82, 0x02, 0x1d, 0xff, 
  0xe0, 0xf8, 0x56, 0xcc, 0x4e, 0x69, 0x43, 0x2b, 0x52, 0x20, 0x85, 0xbb, 
  0x30, 0x78, 0xf2, 0x10, 0x56, 0x5f, 0xe1, 0xfa, 0x88, 0x5c, 0x69, 0x19, 
  0xb1, 0x2d, 0x5f, 0x49, 0xe7, 0x2b, 0xf5, 0xe9, 0x7c, 0xc0, 0x3d, 0xd2, 
  0x4d, 0x8a, 0x67, 0x9b, 0x7f, 0x99, 0x89, 0x42, 0x82, 0x8f, 0x32, 0x5f, 
  0x82, 0x3b, 0x17, 0x7a, 0x0b, 0xf1, 0x5a, 0x58, 0x3c, 0xb6, 0xb6, 0xd9, 
  0xa7, 0x8e, 0x81, 0x25, 0x9a, 0x51, 0x53, 0x16, 0x7c, 0x89, 0xd5, 0xce, 
  0x4c, 0x54, 0x92, 0x18, 0x92, 0x66, 0x8b, 0x1f, 0xcf, 0x79, 0xe2, 0x99, 
  0x5a, 0x9d, 0xe8, 0x83, 0x6b, 0x0e, 0x70, 0x7a, 0xec, 0x50, 0xbc, 0x91, 
  0x68, 0x3c, 0x62, 0x0a, 0x27, 0x1e, 0x85, 0x28, 0x55, 0xff, 0xe2, 0xdc, 
  0xc0, 0x9d, 0xee, 0x39, 0xe3, 0x41, 0x77, 0x74, 0xff, 0xc5, 0x7f, 0x62, 
  0xa5, 0xba, 0x55, 0x01, 0x3d, 0x0b, 0x59, 0xbb, 0xac, 0x70, 0xd9, 0xd7, 
  0x53, 0x2b, 0x74, 0xa9, 0xad, 0xba, 0x5d, 0xa3, 0x44, 0x68, 0x2b, 0x5d, 
  0xbc, 0xd9, 0x9d, 0xa8, 0x1e, 0xcc, 0xf2, 0xad, 0x7b, 0x8a, 0x2e, 0x0f, 
  0x0a, 0xcd, 0xac, 0xc5, 0xde, 0x30, 0x3e, 0xae, 0x3c, 0x53, 0x14, 0x0d, 
  0x6f, 0x37, 0xec, 0x3d, 0x32, 0xa9, 0x7c, 0xa1, 0xb2, 0xbd, 0xb9, 0xf3, 
  0xc2, 0x4c, 0xee, 0xab, 0x6a, 0xc1, 0xd5, 0xa1, 0xd8, 0xb4, 0xd1, 0xe0, 
  0x3b, 0xb0, 0x81, 0x86, 0xc7, 0x0d, 0x07, 0x94, 0x83, 0x77, 0x32, 0x0a, 
  0x86, 0xe9, 0xb0, 0x15, 0x8c, 0xa3, 0xb9, 0xbd, 0xaf, 0xa9, 0x96, 0x7f, 
  0xc2, 0xf0, 0x85, 0xdf, 0x63, 0x02, 0x1e, 0x96, 0x7a, 0xd4, 0xb1, 0xda, 
  0x1d, 0x2e, 0x96, 0xbb, 0xd8, 0x2e, 0x69, 0x2c, 0x12, 0x7c, 0x08, 0x25, 
  0x35, 0x93, 0x39, 0xdd, 0xb6, 0xfb, 0x47, 0xa5, 0x30, 0x98, 0xe2, 0x38, 
  0x5e, 0xfa, 0x76, 0x07, 0xed, 0x22, 0x90, 0x70, 0x96, 0xf4, 0xf0, 0x73, 
  0x55, 0xb5, 0xd8, 0xa8, 0x09, 0x93, 0xc2, 0x8f, 0x0a, 0xf9, 0x2c, 0x0f, 
  0xb0, 0x98, 0xff, 0xea, 0x56, 0xd0, 0x63, 0x56, 0x81, 0x7c, 0x54, 0xec, 
  0xc2, 0xaf, 0x00, 0x68, 0x6c, 0x30, 0x05, 0x60, 0x1d, 0x8a, 0x3e, 0x0f, 
  0xb5, 0x2e, 0xe5, 0xcc, 0x65, 0x07, 0xa7, 0x4c, 0xa9, 0x02, 0xc7, 0xc2, 
  0x91, 0x76, 0xf6, 0xfb, 0x90, 0x4a, 0x2a, 0x5b, 0x33, 0xca, 0x1f, 0x6b, 
  0x20, 0x60, 0x75, 0x46, 0x6b, 0x05, 0x6c, 0x20, 0x32, 0x9f, 0x37, 0xb5, 
  0x6c, 0x52, 0xa7, 0x10, 0x0f, 0x8a, 0x05, 0x72, 0x06, 0xba, 0x8a, 0xec, 
  0xfe, 0xa9, 0x39, 0x72, 0x4e, 0x7c, 0x87, 0xdf, 0x0b, 0x0e, 0x0c, 0x27, 
  0x90, 0x20, 0x3c, 0x1c, 0xd6, 0xe8, 0x4e, 0x7f, 0x21, 0x2a, 0x91, 0x76, 
  0xf4, 0xd0, 0x9d, 0x62, 0x34, 0xba, 0x85, 0x98, 0xcf, 0x85, 0x24, 0x0e, 
  0xa2, 0xf4, 0xd2, 0x8a, 0x51, 0xfb, 0xd1, 0x55, 0xee, 0xca, 0x7f, 0xd5, 
  0x9c, 0x3d, 0x0a, 0x4a, 0xb6, 0x5b, 0x9d, 0x0f, 0x38, 0x53, 0x68, 0x94, 
  0xa3, 0x49, 0x9c, 0x3a, 0x5a, 0xe9, 0xeb, 0x66, 0x04, 0xdd, 0x10, 0xdb, 
  0x99, 0x24, 0xf0, 0x4c, 0xff, 0x83, 0xf0, 0x52, 0x1f, 0x44, 0xb0, 0xeb, 
  0x1d, 0xcb, 0xe7, 0xb9, 0x49, 0x00, 0x63, 0x3c, 0xd5, 0x76, 0x02, 0xac, 
  0x97, 0x40, 0x74, 0x70, 0x35, 0xae, 0x98, 0x10, 0x18, 0xd6, 0xec, 0xcf, 
  0x07, 0x55, 0x3a, 0xd5, 0x4f, 0x62, 0x16, 0x90, 0x95, 0x35, 0x85, 0xaa, 
  0x06, 0x18, 0xe6, 0x18, 0x28, 0x8a, 0x3d, 0xf8, 0xcc, 0x1e, 0xed, 0xa7, 
  0x87, 0xd0, 0xd3, 0xcb, 0x29, 0x9a, 0x6d, 0xcb, 0x02, 0x6c, 0x7d, 0xac, 
  0x30, 0x11, 0x59, 0xa7, 0x6d, 0xba, 0x04, 0x45, 0x5e, 0xc5, 0x62, 0xf4, 
  0x26, 0x5c, 0xbb, 0x05, 0x16, 0x7f, 0x12, 0xd5, 0xc4, 0xf2, 0xe7, 0x5e, 
  0x1a, 0x10, 0x2e, 0xec, 0xf6, 0xb4, 0xb2, 0x2e, 0xa7, 0x5f, 0xf2, 0xf7, 
  0xc8, 0x0b, 0x7a, 0x0e, 0x13, 0x12, 0xe9, 0x24, 0x5d, 0x2c, 0xc5, 0x5c, 
  0xfb, 0xc7, 0xb1, 0xdc, 0xf6, 0x44, 0xce, 0x50, 0x48, 0x07, 0xbe, 0x2d, 
  0xe3, 0xf9, 0x08, 0x44, 0x1e, 0xc4, 0x45, 0x4c, 0x7c, 0x39, 0xe8, 0xd6, 
  0x3b, 0x70, 0xb0, 0xf1, 0x15, 0x11, 0x0f, 0x6b, 0x0d, 0xba, 0x15, 0xf1, 
  0x65, 0xdf, 0xbd, 0x53, 0x55, 0x47, 0x3b, 0x3a, 0x4e, 0x2b, 0x66, 0xba, 
  0xc2, 0x4e, 0xdf, 0xb8, 0x0a, 0x20, 0xff, 0xf0, 0x3a, 0xec, 0xaa, 0x3d, 
  0x42, 0x04, 0x31, 0x57, 0xe4, 0xb9, 0xf2, 0xe8, 0x50, 0xe5, 0xc8, 0x22, 
  0x04, 0x7f, 0x18, 0xeb, 0xb4, 0xd3, 0xb0, 0xf6, 0x0d, 0xeb, 0x32, 0x13, 
  0xe2, 0xf4, 0xc7, 0xae, 0x5b, 0x22, 0xe3, 0x57, 0x58, 0x67, 0xbf, 0xf9, 
  0xb5, 0xf9, 0xb1, 0xaa, 0x08, 0x02, 0x54, 0xcd, 0x54, 0xbe, 0x0e, 0x04, 
  0x15, 0x05, 0x2c, 0xb4, 0xf7, 0xec, 0x5e, 0x10, 0x04, 0xdb, 0x51, 0x58, 
  0x7f, 0xb6, 0xb2, 0x46, 0xdd, 0xe5, 0x09, 0x39, 0x71, 0x65, 0xc3, 0x2b, 
  0xf7, 0xed, 0xeb, 0x1f, 0x32, 0x40, 0x42, 0x4b, 0x6c, 0x0d, 0x25, 0x3b, 
  0x0a, 0x28, 0x5c, 0xb7, 0xd5, 0xd6, 0x47, 0xc8, 0xd5, 0xf2, 0xac, 0x27, 
  0x45, 0xe4, 0x5e, 0xc8, 0x08, 0x61, 0xc5, 0x11, 0xf5, 0x57, 0x0d, 0x90, 
  0x21, 0x66, 0xb4, 0x36, 0xf1, 0x4b, 0xd4, 0x4c, 0xde, 0x74, 0xc0, 0x77, 
  0x68, 0x97, 0x5a, 0x62, 0x93, 0xf4, 0x54, 0x36, 0xc7, 0x34, 0xc2, 0xa3, 
  0xf0, 0xcb, 0xd0, 0xaf, 0xb2, 0x76, 0x3b, 0x71, 0x60, 0x76, 0xe2, 0xf6, 
  0xcd, 0xcf, 0x16, 0x7f, 0x60, 0x71, 0x61, 0x31, 0xcf, 0x15, 0xd0, 0x2d, 
  0x9a, 0x47, 0x52, 0x3f, 0x3f, 0x5b, 0x65, 0x46, 0xcb, 0x28, 0xe1, 0x14, 
  0xbd, 0x64, 0x99, 0x07, 0xe1, 0x55, 0x50, 0xf5, 0x26, 0x2c, 0x6e, 0x19, 
  0xdf, 0x4e, 0x4d, 0x7f, 0x60, 0xa4, 0xe5, 0xff, 0xa4, 0x4e, 0xba, 0xa3, 
  0x0f, 0xd8, 0xea, 0xc1, 0x11, 0xcb, 0x0c, 0x12, 0x4c, 0x03, 0x4f, 0x21, 
  0xbf, 0xc8, 0x2c, 0xd8, 0xcd, 0x70, 0x2b, 0xe6, 0xcd, 0x62, 0x1b, 0x54, 
  0xca, 0x3c, 0xea, 0x57, 0xe7, 0x3d, 0xfe, 0xb0, 0x11, 0xff, 0x1d, 0xd8, 
  0x1a, 0x0e, 0x6a, 0x45, 0x3d, 0x06, 0x2a, 0x54, 0x01, 0x65, 0x24, 0xbb, 
  0x61, 0x60, 0xc0, 0x02, 0xc9, 0xef, 0x2a, 0x29, 0xf5, 0x2d, 0xec, 0x45, 
  0x3f, 0x63, 0x3c, 0xdf, 0xee, 0x0c, 0xf2, 0xcf, 0x68, 0xc1, 0xbf, 0xe0, 
  0xcf, 0x5f, 0x07, 0x43, 0xef, 0x7f, 0x21, 0x2a, 0x5b, 0x53, 0x4e, 0x55, 
  0x29, 0x51, 0xdd, 0x4a, 0x17, 0x13, 0xbe, 0x3d, 0xf5, 0xf5, 0x18, 0x52, 
  0x2a, 0x1b, 0x1f, 0xb8, 0xd4, 0xf0, 0xc9, 0xeb, 0x2b, 0x5d, 0xb9, 0xc7, 
  0x1f, 0xab, 0xe4, 0x28, 0xb6, 0xd6, 0x47, 0x10, 0x21, 0xdb, 0x03, 0xd8, 
  0x61, 0xa3, 0xf9, 0x56, 0xdc, 0x47, 0x7d, 0xe1, 0x65, 0xbd, 0x03, 0x6b, 
  0x5a, 0x5e, 0x05, 0x96, 0x87, 0x2b, 0xdb, 0x03, 0xf3, 0x8e, 0x98, 0x69, 
  0xc9, 0x26, 0x43, 0x51, 0xa5, 0xbc, 0x29, 0xb4, 0x03, 0x7a, 0xc2, 0x45, 
  0xbf, 0x8f, 0xdc, 0x02, 0x88, 0x22, 0xa6, 0x36, 0x72, 0x82, 0x24, 0x87, 
  0x23, 0xf4, 0x71, 0x36, 0x81, 0x75, 0x5a, 0x66, 0xcc, 0x24, 0x7d, 0x5b, 
  0xab, 0x21, 0xef, 0x11, 0x05, 0x5c, 0x7a, 0x8d, 0x13, 0x69, 0x50, 0xcf, 
  0x81, 0xb7, 0x69, 0x5d, 0x70, 0xc3, 0xc1, 0x26, 0xed, 0xbc, 0x99, 0xb2, 
  0x76, 0xdf, 0xbc, 0x75, 0x46, 0x19, 0xed, 0xe4, 0x42, 0x9d, 0x43, 0x1d, 
  0x7f, 0x3b, 0xb6, 0x1f, 0x79, 0x0a, 0xda, 0x32, 0x3a, 0xc1, 0xf1, 0x4d, 
  0x1b, 0xba, 0xa4, 0xb6, 0xa4, 0x1f, 0x45, 0x43, 0x7a, 0xd8, 0x7b, 0x61, 
  0xf8, 0x07, 0x86, 0xd8, 0xa1, 0x42, 0xcc, 0x64, 0x48, 0x4d, 0x18, 0x9a, 
  0x0e, 0x20, 0x1a, 0xc2, 0xe2, 0x45, 0x63, 0xf0, 0xba, 0x8d, 0xc8, 0x96, 
  0x46, 0xb9, 0x51, 0x84, 0xe0, 0xeb, 0x8a, 0xec, 0xfb, 0xc5, 0xbb, 0xd5, 
  0x2b, 0x39, 0xb7, 0x9b, 0xa4, 0x88, 0x74, 0xb3, 0xc2, 0xcd, 0x2c, 0x5e, 
  0xdc, 0x89, 0x82, 0x0e, 0x1f, 0x6d, 0x06, 0xc3, 0x1c, 0x56, 0xad, 0x29, 
  0xbd, 0x54, 0x35, 0x09, 0xf5, 0x29, 0xcb, 0xd0, 0x86, 0xfa, 0x44, 0xa6, 
  0x3d, 0x71, 0x63, 0x95, 0x46, 0x6a, 0xd9, 0x2b, 0x3b, 0x20, 0x09, 0xac, 
  0xfb, 0x0d, 0x1f, 0x74, 0xc5, 0x1d, 0x48, 0xfd, 0xb9, 0x04, 0x9d, 0x33, 
  0xee, 0x9b, 0xd7, 0xf6, 0xc0, 0x4f, 0xd3, 0x4e, 0xab, 0x88, 0xfe, 0xd7, 
  0xce, 0x15, 0x38, 0xc4, 0xb3, 0xc2, 0x1b, 0xfd, 0x43, 0xc7, 0x0f, 0x4f, 
  0xa1, 0x0b, 0xb3, 0x2c, 0x0f, 0x39, 0x0e, 0xc1, 0xd4, 0x10, 0x1d, 0x16, 
  0x11, 0x47, 0x22, 0xb6, 0x46, 0x81, 0xcf, 0xea, 0x06, 0x8b, 0xab, 0x99, 
  0x7c, 0x68, 0x17, 0x36, 0xed, 0x2c, 0x1a, 0xb0, 0x32, 0x8e, 0x5a, 0x16, 
  0xfe, 0x3b, 0x22, 0x68, 0xd2, 0xe9, 0xcc, 0x31, 0xf1, 0xdb, 0x5a, 0x2a, 
  0xef, 0x4c, 0x1a, 0x46, 0x36, 0xf8, 0xae, 0x01, 0xd6, 0x7e, 0x5c, 0x36, 
  0xc9, 0x53, 0x57, 0x42, 0x4d, 0xb0, 0xd0, 0x60, 0x69, 0xa4, 0xe4, 0xef, 
  0x9f, 0x25, 0xab, 0xc1, 0xdd, 0x4d, 0x1d, 0x16, 0x49, 0x4e, 0x03, 0x51, 
  0x4d, 0x3e, 0xbe, 0x22, 0x6d, 0x51, 0xdb, 0xd6, 0x1a, 0x42, 0xd5, 0xfa, 
  0xc3, 0xf4, 0xcb, 0x3c, 0xbd, 0x7c, 0xf5, 0x0a, 0x27, 0x12, 0xe9, 0xee, 
  0x7f, 0x0e, 0x4b, 0xb8, 0xbd, 0x5d, 0x1e, 0x44, 0x45, 0x19, 0x4b, 0x72, 
  0x59, 0xb9, 0x07, 0x2a, 0x3a, 0x20, 0xf7, 0xec, 0xe1, 0xdd, 0xc6, 0x4a, 
  0xfe, 0xc3, 0x59, 0xf3, 0x44, 0x27, 0xe4, 0xda, 0x14, 0xe1, 0xb4, 0xae, 
  0x3b, 0x0f, 0xce, 0xfb, 0x34, 0xae, 0xb6, 0x10, 0xfb, 0xe6, 0x56, 0x06, 
  0xcb, 0xd3, 0x40, 0xee, 0xcc, 0xc9, 0xbb, 0xf1, 0xb5, 0xbf, 0xb8, 0x39, 
  0x12, 0xcb, 0xc8, 0xb0, 0x96, 0xc9, 0xe8, 0xed, 0x70, 0x2a, 0x32, 0x44, 
  0x5e, 0x6e, 0x4b, 0xeb, 0xba, 0xb6, 0xee, 0xcd, 0x50, 0x56, 0x14, 0x35, 
  0x4d, 0x65, 0x95, 0x3b, 0x32, 0xae, 0xc3, 0xaf, 0x00, 0xb0, 0x6a, 0x6a, 
  0xf5, 0xe4, 0xdb, 0xa8, 0x40, 0xc3, 0x1a, 0xfa, 0xb5, 0x7f, 0x0d, 0xfe, 
  0x48, 0xc9, 0x5a, 0x6a, 0x0e, 0x5f, 0x3c, 0x6c, 0xba, 0xe1, 0xfa, 0xe9, 
  0x64, 0xdf, 0x9c, 0x4b, 0xba, 0x04, 0xc0, 0x34, 0xf4, 0x72, 0xf3, 0x3b, 
  0x74, 0x39, 0x58, 0x6f, 0xaf, 0x63, 0xf4, 0x29, 0xae, 0x6e, 0x34, 0x65, 
  0x85, 0x8c, 0xf1, 0x20, 0x3b, 0x67, 0x0d, 0x22, 0xc6, 0x65, 0xf9, 0x0a, 
  0x51, 0xe6, 0x87, 0x60, 0x81, 0x84, 0x95, 0x09, 0x99, 0x3e, 0xdf, 0xeb, 
  0xde, 0x28, 0xcf, 0x42, 0x29, 0x65, 0x00, 0xae, 0x37, 0xab, 0xd8, 0x9e, 
  0xe9, 0xdc, 0x5f, 0x2d, 0x26, 0x42, 0xd0, 0x9e, 0xc0, 0xf6, 0xec, 0xb6, 
  0x89, 0x63, 0xa1, 0x54, 0x24, 0xa7, 0xbb, 0x09, 0x47, 0x73, 0x38, 0x75, 
  0xb1, 0xf6, 0x08, 0xef, 0x63, 0x0b, 0x8d, 0x02, 0xf7, 0x02, 0x5b, 0x9d, 
  0x70, 0xaa, 0x9f, 0x2d, 0xdc, 0x9d, 0xf5, 0xfb, 0xdc, 0xf8, 0x15, 0x72, 
  0xed, 0x75, 0xdb, 0x2c, 0x9a, 0x8f, 0xa8, 0xa1, 0x1d, 0xe4, 0xbc, 0xd8, 
  0x61, 0xea, 0x44, 0x5d, 0x5e, 0x71, 0x65, 0x42, 0xac, 0x38, 0x57, 0x36, 
  0xa8, 0x72, 0xf2, 0x39, 0x1e, 0x33, 0x8d, 0x03, 0x73, 0x05, 0xf6, 0xb4, 
  0xce, 0x28, 0xb2, 0x43, 0x2e, 0x61, 0x48, 0xc9, 0x0d, 0xe3, 0x44, 0x0c, 
  0x4b, 0x2d, 0xa1, 0x2f, 0xbf, 0x27, 0xc3, 0x27, 0x57, 0x6c, 0xc5, 0xc3, 
  0xf3, 0x7b, 0x4a, 0x7b, 0x6a, 0x70, 0xc4, 0x58, 0x96, 0x0d, 0x97, 0xb8, 
  0xfc, 0x16, 0x71, 0xa4, 0x6b, 0x30, 0xff, 0x3d, 0xbc, 0x66, 0xe1, 0x0b, 
  0xe8, 0x52, 0x2a, 0xd2, 0x66, 0x7f, 0xfd, 0x43, 0x76, 0xd4, 0x2c, 0x4d, 
  0x1d, 0x92, 0xad, 0x69, 0x20, 0x12, 0x93, 0x14, 0xed, 0x2d, 0x16, 0xe3, 
  0xb7, 0x1c, 0x94, 0x84, 0x61, 0xd1, 0x00, 0x96, 0x7a, 0xcb, 0xa9, 0x18, 
  0xdf, 0x1a, 0xcf, 0x2b, 0x8a, 0xd2, 0x7f, 0xff, 0xf7, 0xd7, 0x91, 0xfc, 
  0x6c, 0xc7, 0x26, 0xaf, 0x43, 0x67, 0x99, 0xfa, 0x6b, 0xf6, 0x57, 0x5a, 
  0xa9, 0xed, 0x8e, 0x34, 0xb9, 0x94, 0xaa, 0xd3, 0xda, 0x1d, 0xa1, 0x20, 
  0x24, 0x67, 0x57, 0x10, 0x96, 0x24, 0x42, 0xfb, 0x68, 0x58, 0xd4, 0xbd, 
  0xe3, 0x23, 0x51, 0x65, 0xb6, 0x51, 0x54, 0x3f, 0x8d, 0x3d, 0x31, 0xcb, 
  0xae, 0x95, 0xd1, 0xc0, 0x35, 0x2b, 0x2e, 0x71, 0xc5, 0x37, 0xf1, 0x8c, 
  0x3b, 0x3a, 0xab, 0x91, 0x5f, 0x09, 0x64, 0x0f, 0x69, 0xe7, 0x4c, 0x63, 
  0xfe, 0x38, 0x91, 0xe4, 0xdb, 0x1e, 0xdc, 0x53, 0xf1, 0x94, 0xf3, 0xc3, 
  0xce, 0xda, 0x13, 0x6f, 0x9a, 0xe1, 0xf6, 0x07, 0x47, 0xb2, 0xff, 0x6e, 
  0x4e, 0x83, 0x55, 0xc9, 0x4e, 0xa4, 0x5d, 0xb5, 0x2b, 0xe3, 0x89, 0x6e, 
  0xe7, 0x96, 0xce, 0x21, 0x7b, 0xc5, 0xe6, 0xaf, 0xfb, 0xc7, 0x23, 0xa1, 
  0xd9, 0x20, 0xb3, 0x0e, 0x21, 0x9e, 0x38, 0xdf, 0x78, 0x48, 0xd0, 0x4e, 
  0xcf, 0xde, 0x6f, 0x7e, 0xea, 0xf2, 0x0f, 0x8b, 0x64, 0x4c, 0xe1, 0x30, 
  0x5e, 0x94, 0x5a, 0xc2, 0x01, 0xaf, 0x7f, 0xbe, 0xe2, 0x94, 0x8a, 0x9a, 
  0x04, 0xa0, 0x07, 0xf1, 0x2a, 0x38, 0xef, 0x29, 0xc5, 0xb3, 0x9d, 0xdd, 
  0x55, 0xb9, 0x8d, 0x1a, 0x15, 0x68, 0xfa, 0x04, 0xfe, 0x62, 0x87, 0x17, 
  0x45, 0xf3, 0x99, 0x9f, 0x9a, 0xbd, 0xc9, 0x32, 0xf2, 0xf7, 0x5b, 0x0c, 
  0x67, 0x35, 0x9b, 0xa8, 0xb0, 0x78, 0x6e, 0x82, 0x16, 0xbe, 0x10, 0x6a, 
  0x8f, 0x01, 0x46, 0xd5, 0xb6, 0xca, 0xb8, 0xda, 0x27, 0x17, 0x9a, 0x55, 
  0x6d, 0xae, 0x95, 0xe4, 0xff, 0xe5, 0xdc, 0x30, 0xd9, 0x0f, 0xe9, 0x8f, 
  0x3e, 0xae, 0x92, 0x6d, 0xb3, 0xb1, 0xb1, 0x05, 0x06, 0x36, 0x26, 0x3a, 
  0x01, 0x81, 0xcb, 0xa1, 0xa3, 0x69, 0xc1, 0xe6, 0x78, 0x0c, 0xc6, 0x1a, 
  0xdc, 0x7f, 0x66, 0xfb, 0x2f, 0xa8, 0x38, 0x71, 0x52, 0xb4, 0x7c, 0xa5, 
  0xa5, 0x6e, 0x2e, 0xe7, 0x4c, 0x22, 0x20, 0x29, 0x33, 0x63, 0x00, 0x64, 
  0x3b, 0x47, 0x6c, 0xce, 0x9e, 0xd4, 0xb9, 0xbd, 0xf6, 0x43, 0xd6, 0xf0, 
  0xc3, 0x6f, 0x92, 0xad, 0x3a, 0xb5, 0x15, 0x16, 0xe3, 0x94, 0xd6, 0x19, 
  0x68, 0xbc, 0xb2, 0x01, 0x87, 0xcf, 0x97, 0x01, 0x7d, 0x1e, 0xa8, 0xfd, 
  0x99, 0xae, 0x75, 0xa2, 0xdf, 0xcc, 0x05, 0xb2, 0xc1, 0x4f, 0xa8, 0x10, 
  0xb6, 0x24, 0xc3, 0x4a, 0x01, 0x5e, 0xff, 0x53, 0xc9, 0xa8, 0xd3, 0x15, 
  0x48, 0x52, 0x69, 0xb0, 0x62, 0x50, 0xd4, 0xf7, 0x06, 0x55, 0x25, 0xa5, 
  0xac, 0x25, 0x62, 0xd0, 0x90, 0xa4, 0x54, 0x59, 0x98, 0x6b, 0xf3, 0x2b, 
  0x5d, 0xc9, 0x07, 0x7c, 0x33, 0x55, 0xfc, 0x5a, 0xae, 0x7f, 0xb3, 0xbf, 
  0x44, 0xc3, 0xec, 0x24, 0xc4, 0x43, 0xfd, 0xc5, 0xb1, 0xf3, 0xc3, 0x46, 
  0xd3, 0x34, 0x53, 0x15, 0xf9, 0x64, 0x5c, 0x6d, 0x05, 0x68, 0xaa, 0x0b, 
  0xf1, 0x36, 0xb3, 0x48, 0xfa, 0x4b, 0xef, 0x15, 0xef, 0xd6, 0xb1, 0xb7, 
  0xf4, 0x5c, 0x17, 0x5e, 0xdd, 0x1f, 0x56, 0xd2, 0x50, 0x71, 0x22, 0x55, 
  0x4d, 0x4c, 0xee, 0x27, 0x53, 0xf8, 0xaa, 0xea, 0xdf, 0x07, 0xf7, 0x13, 
  0xa6, 0xf9, 0x4e, 0x0e, 0x3a, 0xb8, 0x50, 0xfc, 0x39, 0x0b, 0x52, 0xa8, 
  0xc4, 0x18, 0x0f, 0x07, 0x64, 0x7f, 0x22, 0x09, 0x02, 0xb5, 0x26, 0x41, 
  0xe9, 0x64, 0x5d, 0xc1, 0x04, 0x3c, 0xf0, 0x57, 0x5c, 0x29, 0x4c, 0xb6, 
  0x5d, 0xcf, 0x4f, 0xb1, 0x01, 0x05, 0x47, 0x88, 0xc2, 0x7c, 0x65, 0xd8, 
  0x99, 0xa6, 0x4d, 0x2b, 0x1a, 0x18, 0x09, 0x6c, 0xf6, 0x63, 0x42, 0x19, 
  0x7f, 0xa4, 0x6d, 0xab, 0xda, 0xcd, 0xcb, 0x2e, 0x5c, 0xf4, 0xc1, 0xf7, 
  0x73, 0x6c, 0x53, 0xf6, 0x58, 0xe1, 0x57, 0x66, 0x5c, 0xe4, 0xd0, 0xf1, 
  0x16, 0x02, 0x4a, 0x74, 0xc4, 0x16, 0x7f, 0xc3, 0xcb, 0x08, 0xdd, 0xf7, 
  0xa7, 0x10, 0x7c, 0xa6, 0x23, 0x8c, 0xaf, 0xd5, 0x2d, 0xd8, 0xcf, 0xb6, 
  0x66, 0xaf, 0xd2, 0xbe, 0x8b, 0xdc, 0x00, 0x14, 0x50, 0x26, 0x93, 0x24, 
  0xdb, 0xb1, 0x09, 0xfd, 0x8c, 0xd3, 0xb8, 0xd3, 0xed, 0x67, 0x71, 0xbb, 
  0xdd, 0x79, 0x20, 0xb2, 0x8a, 0x56, 0xdb, 0x34, 0x3d, 0xeb, 0xfa, 0x4c, 
  0x4d, 0x09, 0x61, 0xc6, 0xd4, 0xce, 0x6b, 0x6c, 0xc6, 0xbc, 0x53, 0x21, 
  0xae, 0xe7, 0x2b, 0x77, 0x63, 0x0a, 0x13, 0x14, 0xa5, 0x45, 0xb3, 0x92, 
  0xc9, 0x07, 0x2f, 0x56, 0x5e, 0xa7, 0xec, 0x8a, 0x71, 0x9e, 0x03, 0xfd, 
  0xd7, 0x71, 0x0d, 0xb5, 0xb8, 0xda, 0xeb, 0x52, 0x03, 0x46, 0x59, 0x73, 
  0x55, 0xbc, 0xb7, 0x1a, 0x20, 0x46, 0x0a, 0x89, 0x52, 0x81, 0xe3, 0xb4, 
  0x41, 0xed, 0xf6, 0x79, 0xc9, 0xd7, 0x3a, 0x1a, 0x3e, 0xb0, 0x02, 0x68, 
  0xa4, 0x3f, 0x6a, 0xb9, 0x00, 0xfa, 0xdd, 0x2a, 0xcf, 0x62, 0x01, 0x22, 
  0x48, 0x63, 0xd0, 0x08, 0x97, 0x8c, 0xbf, 0x27, 0x3b, 0xb1, 0x56, 0x47, 
  0x65, 0x41, 0x43, 0x6d, 0x2c, 0x76, 0x1f, 0xa5, 0xbe, 0x39, 0x6d, 0x9c, 
  0xae, 0x07, 0xec, 0x36, 0x96, 0x58, 0x4e, 0x57, 0x60, 0x81, 0x95, 0x4e, 
  0xac, 0xd6, 0x58, 0x14, 0xfe, 0x12, 0xb6, 0x64, 0x69, 0x93, 0xf4, 0x03, 
  0xf4, 0x27, 0x34, 0x22, 0xc8, 0x85, 0x98, 0xc9, 0x48, 0x77, 0x51, 0xac, 
  0x32, 0xb3, 0x03, 0x3f, 0xde, 0xea, 0x5a, 0x88, 0x13, 0xf5, 0xc4, 0x05, 
  0x3a, 0x85, 0xf7, 0xdb, 0xcb, 0x2e, 0x71, 0x10, 0xc1, 0xcf, 0xb3, 0x1f, 
  0xce, 0x93, 0xbd, 0xde, 0x46, 0xf2, 0x5e, 0x87, 0xfb, 0x5b, 0x41, 0x9e, 
  0xb0, 0x1e, 0x16, 0x43, 0xb6, 0x69, 0x7c, 0x82, 0xf5, 0xd7, 0xa4, 0x96, 
  0x7f, 0x3c, 0x0c, 0x99, 0x06, 0xbb, 0x08, 0x03, 0x07, 0xdd, 0x6c, 0xd8, 
  0x22, 0x8e, 0x41, 0x0a, 0x0a, 0x53, 0x2b, 0x27, 0xaf, 0xf6, 0x08, 0x67, 
  0x84, 0x6b, 0x0b, 0x31, 0x94, 0x06, 0x25, 0xf1, 0x6e, 0x60, 0xbc, 0x30, 
  0x30, 0xd9, 0x1e, 0xc5, 0xea, 0x31, 0xc3, 0x5d, 0xb2, 0xc7, 0xd6, 0x0b, 
  0x14, 0x5a, 0xb5, 0x30, 0x99, 0x6d, 0x36, 0x0d, 0xfe, 0xfb, 0x6f, 0xcc, 
  0x35, 0xb9, 0x5b, 0x41, 0x0d, 0x50, 0x2b, 0x01, 0xff, 0x11, 0x99, 0xbf, 
  0x98, 0x51, 0x47, 0xc6, 0xf8, 0xb2, 0xa9, 0x2a, 0xb4, 0x4a, 0x1c, 0x60, 
  0x81, 0xec, 0x19, 0x5f, 0x3b, 0x08, 0x66, 0x78, 0xe4, 0xd2, 0x73, 0x82, 
  0x69, 0x66, 0xe5, 0xa5, 0x4a, 0x54, 0x60, 0x94, 0xf4, 0x94, 0x23, 0x88, 
  0xa9, 0xa4, 0x8a, 0x31, 0xcf, 0xd1, 0x17, 0xd6, 0x3b, 0xa2, 0x96, 0x73, 
  0x66, 0xc7, 0xab, 0xf4, 0xee, 0x81, 0xb2, 0x15, 0xb5, 0xb0, 0x6a, 0x96, 
  0x90, 0xc5, 0x10, 0xce, 0x19, 0xbc, 0x57, 0xaf, 0xd0, 0x69, 0x73, 0x44, 
  0xc8, 0xa5, 0xf2, 0xa5, 0xe7, 0xa0, 0x3e, 0xf1, 0xf2, 0x37, 0xc9, 0x92, 
  0xd8, 0x8c, 0x90, 0x2e, 0x0b, 0x51, 0x04, 0x28, 0xca, 0xac, 0x16, 0xa2, 
  0x6d, 0x07, 0xeb, 0x59, 0x17, 0x8d, 0x0e, 0x48, 0xb0, 0x1f, 0xb5, 0xd8, 
  0xf9, 0x61, 0x43, 0x15, 0x49, 0x6f, 0x1e, 0x13, 0x46, 0xbe, 0xf6, 0x28, 
  0xd4, 0xaf, 0xec, 0x5f, 0x3e, 0xb9, 0xe2, 0xe5, 0xe4, 0x8b, 0x9c, 0x6d, 
  0xdc, 0x4c, 0x6a, 0x2b, 0x2c, 0xc8, 0x36, 0x28, 0x21, 0x04, 0x64, 0x28, 
  0xba, 0x40, 0x44, 0xea, 0x1c, 0xf9, 0xd9, 0x3e, 0x9f, 0x67, 0x61, 0x1b, 
  0xb9, 0x81, 0x23, 0x0e, 0x77, 0x15, 0x98, 0xe8, 0xdf, 0x7e, 0xdf, 0x3e, 
  0xf4, 0x1d, 0xe2, 0x8a, 0x99, 0xc5, 0xab, 0x88, 0x5c, 0xda, 0x3b, 0xb0, 
  0x43, 0xe8, 0x64, 0x26, 0x92, 0x7d, 0x95, 0x82, 0x5b, 0xb0, 0x70, 0x5f, 
  0xb2, 0xa5, 0xd7, 0x09, 0xff, 0xce, 0x2a, 0xc2, 0x84, 0x36, 0xf9, 0x46, 
  0xe1, 0x91, 0x7b, 0x77, 0xf4, 0xe2, 0x49, 0x08, 0xf5, 0x0a, 0x60, 0xb3, 
  0xe1, 0xc3, 0x14, 0x08, 0x31, 0x28, 0x9e, 0xc1, 0x78, 0x1f, 0x8f, 0xe8, 
  0xea, 0x3e, 0x14, 0xae, 0xae, 0x61, 0x6a, 0x9d, 0xed, 0x3b, 0xaa, 0xd0, 
  0x9f, 0xc5, 0x1b, 0x5e, 0x14, 0xe9, 0xda, 0x68, 0x4c, 0xbe, 0xb0, 0x68, 
  0xfe, 0x6d, 0x60, 0x4c, 0x41, 0xa5, 0xdc, 0x57, 0x49, 0x30, 0xc6, 0xdf, 
  0xe3, 0x15, 0x28, 0x6a, 0xd3, 0xc2, 0xf5, 0xcc, 0xd0, 0xb2, 0x5d, 0xbd, 
  0xfb, 0x49, 0x08, 0xb3, 0x3a, 0xf1, 0xd5, 0x0a, 0x1a, 0x5f, 0xae, 0x57, 
  0x4d, 0xb1, 0xae, 0x5c, 0x92, 0x4d, 0xf4, 0xf6, 0x31, 0x0b, 0x66, 0x23, 
  0x7f, 0xa4, 0x40, 0x27, 0xd6, 0x40, 0x4a, 0xa1, 0x70, 0x13, 0x28, 0x48, 
  0x78, 0x66, 0x01, 0xc9, 0xe4, 0x42, 0x77, 0xd1, 0x7f, 0x93, 0x06, 0x0e, 
  0x32, 0x3c, 0x3f, 0xff, 0xd4, 0xb4, 0xd7, 0x34, 0xeb, 0xe0, 0x87, 0x39, 
  0x03, 0x61, 0x11, 0xce, 0xfe, 0xd6, 0x9f, 0x3b, 0x40, 0x6c, 0xcb, 0xd9, 
  0x0e, 0x94, 0xc3, 0xb8, 0x18, 0xe2, 0x2a, 0xba, 0x7f, 0xd9, 0x6b, 0x11, 
  0x0f, 0xe3, 0x40, 0x88, 0x94, 0x8d, 0x71, 0x0f, 0x07, 0x3a, 0x94, 0x36, 
  0xfe, 0x4a, 0x24, 0x4c, 0x3f, 0x6f, 0x10, 0x25, 0xdc, 0x1e, 0xde, 0x7a, 
  0x0d, 0x9b, 0x2b, 0x49, 0xb4, 0x19, 0xef, 0xa8, 0x78, 0x18, 0xc2, 0x3b, 
  0x5a, 0x38, 0x94, 0xe9, 0x55, 0x20, 0x62, 0x98, 0xb1, 0x2f, 0x79, 0x72, 
  0x04, 0xcf, 0x9a, 0xaa, 0xbe, 0x53, 0x1d, 0xaa, 0x65, 0x97, 0x77, 0x72, 
  0x7f, 0xd0, 0xfd, 0x6e, 0x58, 0xca, 0x7d, 0xa7, 0xcf, 0xe8, 0xde, 0x0e, 
  0x28, 0x69, 0x61, 0x1a, 0xe2, 0x79, 0x70, 0x08, 0x6f, 0x46, 0x14, 0x4f, 
  0xc9, 0x56, 0x85, 0xd4, 0xc6, 0x43, 0xb3, 0x38, 0x93, 0xa2, 0xd0, 0xa3, 
  0x90, 0x62, 0xfe, 0x3f, 0x0a, 0xf6, 0xb7, 0xe4, 0xf1, 0x75, 0x2a, 0x5e, 
  0xec, 0x2f, 0x45, 0x3a, 0x3e, 0xf5, 0xb6, 0xcc, 0x7d, 0x7f, 0xca, 0x17, 
  0xc4, 0x08, 0x39, 0x4d, 0x54, 0xd1, 0x86, 0xea, 0x27, 0x19, 0xc0, 0x34, 
  0x5a, 0x34, 0xe7, 0xe0, 0xbc, 0x79, 0xa9, 0xfe, 0xe0, 0xfa, 0xbc, 0xc2, 
  0xed, 0xfc, 0x28, 0x60, 0x40, 0x8d, 0x1c, 0xa9, 0x1d, 0xe7, 0xd7, 0x6a, 
  0x8f, 0x43, 0x1a, 0x25, 0xa4, 0xd9, 0x3a, 0xb8, 0x29, 0x53, 0x28, 0x93, 
  0xec, 0xaf, 0x70, 0xfe, 0xb9, 0x93, 0x3a, 0xf9, 0xc2, 0xdf, 0x03, 0x63, 
  0xa0, 0xa0, 0x47, 0x5f, 0x06, 0x81, 0x12, 0x89, 0x9f, 0xcf, 0xa8, 0x13, 
  0x04, 0xc0, 0xf0, 0x11, 0xf9, 0x96, 0x22, 0x0a, 0x92, 0xcb, 0x9d, 0x57, 
  0x15, 0x6f, 0x3e, 0x16, 0xde, 0x19, 0x84, 0x28, 0x10, 0x5f, 0x08, 0xd7, 
  0x32, 0xcb, 0x0b, 0xf4, 0x4f, 0xd4, 0x94, 0x63, 0xfe, 0x91, 0xa0, 0x88, 
  0x7a, 0x07, 0xd8, 0x39, 0xd5, 0xef, 0x60, 0x74, 0x1b, 0x4c, 0x12, 0xed, 
  0x17, 0xd1, 0x44, 0xb0, 0x1f, 0xdd, 0x98, 0x13, 0xec, 0xfd, 0x0f, 0xa6, 
  0x57, 0x5c, 0xd6, 0x4b, 0x50, 0xaf, 0xb4, 0x4f, 0x53, 0x53, 0xe0, 0xc3, 
  0x4b, 0x39, 0x8c, 0xc2, 0x46, 0x72, 0x3b, 0xcf, 0xd7, 0xd8, 0x13, 0x9f, 
  0x44, 0x22, 0xa2, 0xc3, 0xd8, 0x75, 0x4c, 0x8d, 0x8f, 0x29, 0x71, 0x7c, 
  0xf0, 0x5c, 0xb6, 0x2c, 0x92, 0xdd, 0xdf, 0xd9, 0x55, 0x2c, 0x9b, 0x7b, 
  0x18, 0xa7, 0x16, 0xc2, 0xc4, 0xc5, 0xb3, 0xab, 0x6e, 0x14, 0x55, 0xb0, 
  0x91, 0x3f, 0x92, 0xd9, 0xef, 0xc6, 0x9a, 0x50, 0x75, 0x02, 0xfc, 0xbe, 
  0x18, 0xc3, 0x25, 0x8b, 0x3a, 0x29, 0xb1, 0xef, 0xc5, 0xec, 0x58, 0x71, 
  0xd1, 0x0b, 0x32, 0x2f, 0x7f, 0x59, 0x7a, 0xb8, 0xcc, 0x57, 0x2a, 0xa6, 
  0x49, 0x47, 0x2d, 0xf9, 0x35, 0x32, 0xbd, 0x7b, 0x1d, 0x36, 0xc1, 0x78, 
  0x88, 0x74, 0x93, 0x31, 0xdb, 0xf6, 0x89, 0xa4, 0xf8, 0x7a, 0x3f, 0x79, 
  0x1c, 0x73, 0x89, 0x70, 0xe7, 0x7b, 0x05, 0xde, 0x38, 0x6a, 0xd3, 0x7d, 
  0xed, 0xd7, 0x45, 0xec, 0x04, 0xec, 0xd8, 0x34, 0x5b, 0x51, 0xfc, 0x41, 
  0xa0, 0x6d, 0x6c, 0xef, 0x9a, 0xd5, 0xe6, 0x2b, 0x0c, 0x83, 0x5e, 0x02, 
  0x87, 0x1d, 0xc9, 0x02, 0xe1, 0xc1, 0x98, 0x6d, 0xa8, 0xe5, 0x37, 0x8a, 
  0x4a, 0xda, 0x2b, 0x93, 0x2b, 0x39, 0x96, 0xc4, 0x28, 0x34, 0x77, 0xee, 
  0x4b, 0x59, 0x06, 0x9a, 0x63, 0xad, 0x98, 0x7b, 0x2a, 0x22, 0x05, 0xf3, 
  0x81, 0xf6, 0x37, 0x5d, 0xbc, 0xe6, 0x5c, 0xeb, 0xac, 0x60, 0x4d, 0x1b, 
  0xfe, 0x7b, 0x6c, 0xfd, 0xf1, 0x2b, 0x8f, 0xc4, 0x1f, 0x6b, 0xa5, 0x2d, 
  0x65, 0x07, 0x7d, 0xba, 0x42, 0xc6, 0x61, 0x7f, 0x85, 0x08, 0x8d, 0xdf, 
  0x41, 0xad, 0x3e, 0x85, 0x10, 0xab, 0x15, 0x6d, 0x9a, 0x06, 0x44, 0xb3, 
  0x81, 0x4b, 0xdc, 0x1e, 0xb5, 0x32, 0x78, 0xb1, 0x50, 0x29, 0xf3, 0x21, 
  0x0a, 0x95, 0x3a, 0xe5, 0x13, 0x0e, 0x6f, 0x28, 0x71, 0x70, 0x2d, 0x06, 
  0x92, 0xde, 0x09, 0xf6, 0x2b, 0x3a, 0x9f, 0x09, 0xf0, 0x8f, 0x44, 0x87, 
  0x8e, 0x23, 0xb9, 0x44, 0x8c, 0x42, 0x28, 0xaa, 0x22, 0x9b, 0x24, 0x22, 
  0xa6, 0x38, 0xf1, 0xe7, 0x9c, 0xa3, 0xf9, 0x18, 0xe1, 0x46, 0x51, 0xd9, 
  0xa1, 0x57, 0xa3, 0xf2, 0x3d, 0x96, 0x88, 0x56, 0x04, 0xe1, 0x14, 0x1e, 
  0x63, 0xdd, 0xf4, 0x6b, 0x88, 0xf6, 0x69, 0x39, 0x4a, 0xd9, 0xa6, 0xaf, 
  0x4c, 0x2b, 0x8a, 0xc1, 0xad, 0x21, 0xd1, 0xfb, 0x39, 0xf6, 0x42, 0x0f, 
  0x73, 0x2b, 0xe4, 0x6e, 0xf0, 0xfa, 0xa6, 0xf0, 0xda, 0x73, 0x1f, 0x66, 
  0x56, 0xf4, 0x57, 0xa7, 0xf6, 0x35, 0xb1, 0xd1, 0x60, 0x6f, 0xce, 0x7b, 
  0x0c, 0xcf, 0xe8, 0x72, 0xba, 0xf7, 0x81, 0x54, 0x48, 0x18, 0xbe, 0xb1, 
  0xba, 0xe0, 0x1c, 0x93, 0x34, 0x91, 0xbf, 0xf0, 0x54, 0xc5, 0xd2, 0x9c, 
  0xf8, 0x5f, 0x18, 0x93, 0x4e, 0x09, 0x0d, 0x57, 0xa6, 0xb3, 0x3e, 0x74, 
  0x20, 0x3f, 0x73, 0x73, 0xa1, 0xc1, 0x82, 0xb9, 0x9d, 0x77, 0x48, 0x8d, 
  0xb6, 0xe0, 0xd5, 0x36, 0xba, 0x63, 0x0e, 0x7c, 0x55, 0x2b, 0x37, 0xab, 
  0x13, 0xa9, 0x2e, 0x07, 0xdd, 0x4b, 0xb2, 0x86, 0x59, 0x67, 0xd1, 0x0f, 
  0xe5, 0x4e, 0x63, 0x5b, 0x0c, 0xae, 0xfa, 0xb1, 0x9b, 0x6c, 0x88, 0x61, 
  0x23, 0xb7, 0xcb, 0xf3, 0xb5, 0x23, 0x3a, 0x3c, 0x4c, 0x4b, 0x3c, 0xc3, 
  0x79, 0x59, 0x9d, 0xc8, 0xe4, 0x05, 0x17, 0xf0, 0x35, 0x97, 0x14, 0xd8, 
  0x1b, 0xd2, 0x64, 0x4b, 0xb0, 0xc4, 0x89, 0xcf, 0xea, 0xcf, 0xd0, 0x79, 
  0x49, 0x45, 0x39, 0xd9, 0xde, 0x94, 0x6f, 0x32, 0xb7, 0xd4, 0x28, 0xbc, 
  0x0b, 0xc6, 0xe8, 0x5f, 0x88, 0x3a, 0x62, 0xaa, 0x34, 0x36, 0x9c, 0xde, 
  0xc0, 0x35, 0xa8, 0x8f, 0x81, 0xc1, 0xb9, 0x18, 0x6f, 0x4c, 0x04, 0x09, 
  0xa8, 0x79, 0x47, 0x23, 0x34, 0xe9, 0x6a, 0xdf, 0x20, 0xf5, 0xa2, 0x23, 
  0xfb, 0xcc, 0x10, 0x2a, 0x2c, 0x37, 0xb6, 0x87, 0x84, 0x72, 0x3b, 0x3e, 
  0xab, 0x55, 0x6b, 0x0a, 0x30, 0xeb, 0x63, 0x0c, 0xa4, 0xea, 0xd6, 0xd8, 
  0x02, 0x4e, 0x3c, 0x4c, 0xe2, 0x94, 0x83, 0x3c, 0xd7, 0x97, 0xaf, 0x39, 
  0xbc, 0xd3, 0x8a, 0x81, 0x0f, 0x06, 0xc9, 0xa1, 0xff, 0x04, 0x88, 0x05, 
  0xe4, 0xb0, 0x87, 0xce, 0x4c, 0xe1, 0x23, 0xd6, 0xc7, 0xbc, 0x74, 0x97, 
  0x18, 0xea, 0x91, 0x74, 0xbc, 0xd4, 0x63, 0xd0, 0x72, 0x5f, 0xb4, 0xaf, 
  0x38, 0x8a, 0x6b, 0x00, 0x9c, 0x1d, 0xae, 0xb8, 0x33, 0x59, 0xb6, 0x97, 
  0x0a, 0x71, 0xe5, 0x7f, 0x25, 0x8f, 0xa0, 0x0b, 0x64, 0xb6, 0xb1, 0x97, 
  0xc5, 0x94, 0x70, 0x02, 0xb5, 0xba, 0x71, 0x63, 0x83, 0xc0, 0xd5, 0x7f, 
  0x47, 0x81, 0xa9, 0x16, 0x4c, 0xe2, 0x99, 0xfd, 0x0e, 0x6f, 0xf2, 0x1b, 
  0x2b, 0xf3, 0x14, 0xcf, 0xef, 0x36, 0x77, 0xbb, 0xe7, 0x2b, 0x54, 0xe6, 
  0xbf, 0xa2, 0xb0, 0xb6, 0x33, 0x79, 0x96, 0xea, 0x8c, 0xfc, 0x60, 0x99, 
  0x8e, 0x57, 0xb5, 0xb0, 0xf6, 0xbc, 0xdc, 0xfd, 0x7d, 0x8c, 0xf3, 0x44, 
  0xcb, 0x84, 0xfb, 0xbe, 0xa4, 0xe5, 0x29, 0x46, 0x7d, 0x0c, 0x2b, 0x70, 
  0xf1, 0x17, 0x51, 0x97, 0xb2, 0x8c, 0xb3, 0x8f, 0x01, 0x45, 0x47, 0xb5, 
  0x61, 0x6a, 0xab, 0x2d, 0x7d, 0xd9, 0x8b, 0xc3, 0xae, 0xf6, 0x34, 0x36, 
  0x0f, 0x3c, 0x75, 0x0e, 0x78, 0xbb, 0x5c, 0xd2, 0xab, 0x05, 0x86, 0x38, 
  0xed, 0xbe, 0xc5, 0x38, 0x50, 0x51, 0x6f, 0xa2, 0x6b, 0x1e, 0x03, 0xe7, 
  0x81, 0x41, 0x0c, 0xb5, 0x5d, 0x85, 0x55, 0x60, 0xa6, 0xff, 0xa0, 0x9c, 
  0xc2, 0x0d, 0xa4, 0xf3, 0xf8, 0xc8, 0x31, 0x98, 0xb2, 0x69, 0x99, 0x22, 
  0x92, 0x94, 0x3f, 0x74, 0xe8, 0x7d, 0xe3, 0xfe, 0xd8, 0xc9, 0x98, 0xb1, 
  0x14, 0x49, 0xa2, 0x53, 0x29, 0x34, 0x74, 0x96, 0xc2, 0x74, 0x41, 0x89, 
  0xc7, 0x26, 0x94, 0x72, 0x57, 0xe5, 0xa1, 0x1c, 0xf6, 0x26, 0x7f, 0xa1, 
  0x40, 0xe5, 0xa6, 0x17, 0xd0, 0x71, 0x8d, 0xcd, 0xb3, 0xfe, 0xcd, 0x33, 
  0xc9, 0x3a, 0xdc, 0x7c, 0xc4, 0xd7, 0x87, 0x66, 0x64, 0x99, 0xde, 0xdb, 
  0x01, 0xde, 0x7a, 0x66, 0xaa, 0xcb, 0x70, 0xd1, 0x39, 0x3f, 0xd2, 0x95, 
  0x81, 0x8f, 0xe2, 0xa8, 0x20, 0x89, 0xcf, 0x51, 0x58, 0xf2, 0xad, 0x7d, 
  0xb4, 0xeb, 0xac, 0x8e, 0xeb, 0x14, 0x2c, 0xcd, 0x9b, 0x43, 0x0e, 0x2a, 
  0x3a, 0x6c, 0x6d, 0x59, 0x34, 0xe4, 0xd3, 0x35, 0xee, 0x02, 0x03, 0xcd, 
  0x18, 0x1f, 0x8b, 0x71, 0x9d, 0xee, 0xa9, 0xa0, 0xc2, 0x57, 0x22, 0x71, 
  0x95, 0xe9, 0xec, 0x6a, 0x30, 0xe5, 0xa4, 0x5d, 0x1d, 0xde, 0xbb, 0x47, 
  0xe7, 0xef, 0x91, 0xcf, 0xc2, 0x22, 0xae, 0xed, 0x86, 0x13, 0x10, 0xd4, 
  0x01, 0x9e, 0x5a, 0x77, 0x71, 0x74, 0x85, 0xf3, 0xa3, 0x88, 0x3c, 0xe8, 
  0x0c, 0xd6, 0xa2, 0x51, 0xb3, 0x62, 0xad, 0xbd, 0x53, 0xfd, 0x39, 0xf3, 
  0x39, 0xa5, 0xd0, 0xf7, 0xfa, 0x59, 0x23, 0xd8, 0x9b, 0x6c, 0x4b, 0x7c, 
  0x3c, 0xcc, 0xfa, 0x5e, 0xa3, 0xfc, 0x19, 0xf7, 0xe2, 0x6e, 0xeb, 0x38, 
  0x63, 0xa9, 0x72, 0x4c, 0x9e, 0x82, 0x25, 0xe5, 0x29, 0xa0, 0x57, 0xa5, 
  0x9f, 0xe6, 0x4f, 0xb4, 0xc9, 0x9c, 0x21, 0x5f, 0x76, 0x1d, 0xcd, 0x5f, 
  0x50, 0x0a, 0x12, 0xfb, 0x81, 0xb6, 0xe3, 0xa0, 0xce, 0x19, 0x78, 0x83, 
  0x6e, 0xb1, 0x23, 0xdf, 0x8f, 0xe0, 0xf0, 0x5e, 0xe0, 0x9d, 0x20, 0xd6, 
  0xb5, 0x40, 0x1d, 0xe5, 0xba, 0xbb, 0xc6, 0xc5, 0x2c, 0x28, 0xeb, 0x75, 
  0xe1, 0x78, 0x35, 0x4a, 0x64, 0x2e, 0xdf, 0x43, 0x89, 0x8a, 0x54, 0x6b, 
  0x67, 0xe6, 0xa0, 0x64, 0x92, 0xf0, 0xd4, 0xbf, 0x9d, 0x28, 0x0c, 0x1f, 
  0xb7, 0xde, 0xc9, 0xef, 0x79, 0xb6, 0xef, 0xca, 0x23, 0xa6, 0xb6, 0x38, 
  0xe9, 0xe0, 0x17, 0x41, 0xf9, 0x60, 0xad, 0x96, 0x84, 0x55, 0x81, 0x56, 
  0x67, 0x3c, 0xbe, 0xff, 0xc5, 0x6d, 0x34, 0x93, 0x26, 0x4e, 0xe4, 0xe3, 
  0x78, 0xfd, 0x8d, 0xd3, 0xdc, 0x2f, 0x52, 0x04, 0xe7, 0x60, 0xf5, 0x84, 
  0x58, 0x16, 0x6b, 0xcc, 0x4d, 0x29, 0x44, 0xcd, 0xf1, 0x6a, 0x52, 0x0b, 
  0x06, 0xc1, 0x92, 0xda, 0x26, 0x68, 0x4e, 0x98, 0xf3, 0xf0, 0xb2, 0x8b, 
  0x2c, 0xd6, 0x99, 0xd9, 0x51, 0xca, 0xce, 0x25, 0x4c, 0x0e, 0x4e, 0x5b, 
  0xb7, 0x45, 0x04, 0x28, 0xbb, 0x5d, 0x14, 0x04, 0xd5, 0x23, 0xff, 0xf7, 
  0x52, 0x7c, 0x3e, 0x20, 0x03, 0x31, 0xe5, 0x03, 0x4e, 0x2a, 0xac, 0xf0, 
  0x4b, 0xc0, 0xfd, 0xae, 0xc4, 0xc9, 0x6e, 0x04, 0xe1, 0x6e, 0x34, 0x09, 
  0x50, 0x1b, 0x3e, 0x0e, 0x5f, 0x4c, 0x09, 0xe7, 0x56, 0xbf, 0xb1, 0x15, 
  0x03, 0xf3, 0x9d, 0xee, 0xb2, 0x62, 0xe6, 0xfc, 0xc0, 0xff, 0xd7, 0x36, 
  0x5c, 0x2f, 0x2f, 0xc4, 0xbe, 0x4b, 0x3c, 0xdb, 0x74, 0x7f, 0x18, 0x3b, 
  0x69, 0x56, 0x2a, 0x5a, 0x2c, 0x2e, 0x62, 0xe2, 0x00, 0x43, 0x15, 0x08, 
  0x4f, 0xfc, 0x13, 0x56, 0xf8, 0xe3, 0xa5, 0xce, 0x3a, 0xae, 0x5b, 0xc4, 
  0xc7, 0xd1, 0xd0, 0x6d, 0xaa, 0x09, 0x43, 0x1a, 0x1b, 0x66, 0x47, 0xbe, 
  0x82, 0x49, 0xbd, 0x54, 0xc1, 0x98, 0x29, 0x62, 0x99, 0x18, 0xb6, 0xee, 
  0xc3, 0xeb, 0xf3, 0x01, 0x7e, 0xc4, 0xea, 0x2b, 0x41, 0x9c, 0x37, 0x83, 
  0x74, 0x82, 0x47, 0xbf, 0x01, 0x3e, 0x5d, 0x7b, 0x81, 0x87, 0xda, 0xa9, 
  0x96, 0x96, 0xac, 0xb3, 0xc9, 0x83, 0x01, 0xe2, 0x3b, 0x55, 0xdc, 0xcc, 
  0xbc, 0x94, 0x4f, 0xd5, 0xc6, 0xca, 0x71, 0x2a, 0x8f, 0xa8, 0xb1, 0x22, 
  0x36, 0x62, 0x7e, 0xd7, 0xec, 0x88, 0x27, 0x54, 0x78, 0x07, 0x65, 0x1b, 
  0x1e, 0x24, 0xf2, 0x53, 0x71, 0x69, 0x21, 0x75, 0x83, 0x52, 0xbc, 0x9c, 
  0x26, 0x09, 0x0e, 0x16, 0x3b, 0xfa, 0x15, 0x0e, 0x05, 0xe8, 0x51, 0x38, 
  0xe7, 0xf1, 0x1f, 0x0b, 0x09, 0x22, 0x4c, 0x51, 0x22, 0x5f, 0x03, 0x21, 
  0xbe, 0x10, 0xf6, 0x5f, 0x25, 0x05, 0x2b, 0x32, 0xe9, 0x40, 0xf5, 0xd9, 
  0x49, 0x04, 0xec, 0x2b, 0xd9, 0x0e, 0x2b, 0x55, 0xf8, 0x3d, 0x4c, 0xdb, 
  0x4f, 0x24, 0xe6, 0xde, 0xcb, 0x4d, 0xe2, 0x18, 0x25, 0x2f, 0xd6, 0x0a, 
  0xf1, 0x45, 0xc4, 0x3e, 0xc3, 0xcc, 0xe8, 0x30, 0x4a, 0xc4, 0x1e, 0x04, 
  0x40, 0x49, 0x0a, 0xd9, 0x5f, 0x7f, 0xf8, 0x2a, 0x39, 0xec, 0xd0, 0x5e, 
  0xf2, 0x4d, 0x38, 0x55, 0x2d, 0xb3, 0x02, 0x18, 0xd0, 0x44, 0xec, 0x53, 
  0x24, 0xed, 0xc8, 0xc2, 0x2b, 0xc1, 0xa4, 0x5a, 0x8c, 0xba, 0xa6, 0x79, 
  0x23, 0x45, 0xb9, 0x94, 0x47, 0x9c, 0x54, 0xd4, 0xff, 0x1c, 0x3b, 0x32, 
  0x5a, 0x03, 0xd0, 0x64, 0x3c, 0x9b, 0x58, 0x37, 0xa2, 0x37, 0xe4, 0xc5, 
  0xf0, 0x90, 0xb7, 0x25, 0x67, 0xd8, 0x17, 0xcf, 0xdd, 0xd6, 0x50, 0x50, 
  0xec, 0x3b, 0x78, 0xeb, 0xb3, 0x96, 0xd9, 0x6c, 0x42, 0xfd, 0x9f, 0x86, 
  0xed, 0x89, 0xb6, 0xca, 0x44, 0x7f, 0x14, 0xab, 0xea, 0x12, 0xc4, 0xff, 
  0x72, 0x7e, 0x9d, 0xf0, 0x7b, 0xec, 0xc3, 0xab, 0x1b, 0xce, 0xb9, 0x75, 
  0x43, 0x29, 0x3f, 0x7e, 0xf3, 0xb6, 0xe4, 0x08, 0x8d, 0xef, 0x3f, 0xf1, 
  0x6d, 0x45, 0x16, 0x2c, 0x9d, 0x73, 0x74, 0x5c, 0x1e, 0x08, 0x74, 0xed, 
  0xf7, 0x09, 0x7c, 0x2e, 0xe2, 0x29, 0x53, 0x22, 0xfd, 0xb5, 0x8e, 0x55, 
  0x41, 0x17, 0x6d, 0x9e, 0x0b, 0xab, 0xd6, 0x6b, 0xd5, 0x30, 0x95, 0x2c, 
  0xde, 0x19, 0x0b, 0x95, 0xc5, 0xf7, 0xea, 0x87, 0x5d, 0x53, 0x8b, 0x71, 
  0x89, 0x89, 0xc4, 0xcf, 0xa0, 0x96, 0xd5, 0x56, 0x66, 0xb3, 0x29, 0xed, 
  0xd0, 0x41, 0xba, 0x2d, 0xd7, 0xfb, 0xb0, 0x10, 0x6a, 0xe1, 0x66, 0x9a, 
  0xa9, 0x81, 0x0d, 0x4b, 0x92, 0x08, 0x9d, 0xc7, 0x3c, 0x89, 0xda, 0x33, 
  0x25, 0x37, 0xc5, 0xb8, 0x46, 0x81, 0xf7, 0x1b, 0x29, 0x0f, 0x6c, 0x0b, 
  0xf9, 0xcf, 0x25, 0x98, 0x87, 0xf2, 0x8d, 0x1b, 0x16, 0x4f, 0xea, 0x83, 
  0xeb, 0xff, 0x36, 0x95, 0x33, 0xb8, 0x12, 0xa4, 0x08, 0xbe, 0xa4, 0x35, 
  0x53, 0x7f, 0xc2, 0xe6, 0xe6, 0xf5, 0x62, 0xef, 0x44, 0x0b, 0x68, 0x3a, 
  0x51, 0xcb, 0x24, 0x6f, 0xef, 0x5e, 0x13, 0x16, 0xf7, 0xc6, 0x9f, 0xaa, 
  0xa5, 0x40, 0x41, 0x4b, 0xbc, 0x01, 0x3c, 0x06, 0x3c, 0x73, 0x7b, 0x08, 
  0xad, 0xbf, 0x55, 0x8f, 0x06, 0xd4, 0x6a, 0x27, 0xb5, 0xbd, 0x17, 0x7a, 
  0x60, 0xf4, 0x0d, 0xa1, 0xe7, 0xa9, 0xa9, 0x53, 0xe8, 0x53, 0xe7, 0x02, 
  0xcf, 0x6e, 0x46, 0x3d, 0x33, 0x28, 0x38, 0x24, 0xea, 0xb2, 0xc3, 0x32, 
  0x10, 0x6c, 0xc9, 0x76, 0xf4, 0xb3, 0x9d, 0x1c, 0x1c, 0xde, 0xde, 0xde, 
  0x02, 0x0d, 0x4d, 0xfc, 0x9c, 0x82, 0xa9, 0x39, 0xb8, 0x52, 0x21, 0x35, 
  0x9c, 0x97, 0xa3, 0x5a, 0x2d, 0x19, 0xf9, 0xee, 0x45, 0xbf, 0x7e, 0x41, 
  0x2d, 0x8e, 0xc9, 0xb4, 0xba, 0x91, 0x0e, 0x12, 0x49, 0x38, 0xb4, 0x00, 
  0x89, 0x4b, 0x68, 0x36, 0x2f, 0xce, 0x16, 0xb9, 0xea, 0x69, 0x54, 0x6d, 
  0xb9, 0xab, 0x93, 0xbe, 0xf3, 0xc2, 0xe4, 0xfa, 0xf5, 0xd1, 0x7f, 0x05, 
  0x6d, 0xd4, 0x74, 0x61, 0x0b, 0x4e, 0x9d, 0xcb, 0xf5, 0x9a, 0xff, 0x42, 
  0xc2, 0x9d, 0x87, 0x3f, 0xe9, 0x9a, 0x49, 0x67, 0x17, 0x27, 0xa0, 0xd9, 
  0xc3, 0xf4, 0x52, 0xd8, 0x7d, 0xc3, 0xbe, 0x9b, 0x21, 0x25, 0xba, 0xb2, 
  0x06, 0x9d, 0xcc, 0x8d, 0x9b, 0xe6, 0xf7, 0xf6, 0x32, 0xee, 0xcf, 0xdf, 
  0xe1, 0x09, 0x2e, 0x2b, 0x75, 0x3f, 0x64, 0xe1, 0x15, 0x4c, 0x3c, 0xd5, 
  0xce, 0x59, 0x7f, 0x15, 0xb8, 0xf8, 0xb7, 0xe3, 0x34, 0xfc, 0xb6, 0xdd, 
  0x34, 0x51, 0xa2, 0x17, 0x56, 0x37, 0xdd, 0xfe, 0xb7, 0xd0, 0x29, 0x9c, 
  0xe2, 0x00, 0x4f, 0xb8, 0x32, 0x29, 0x19, 0x65, 0x64, 0xf6, 0x01, 0x4b, 
  0xb0, 0x4d, 0x02, 0x38, 0xc8, 0x0a, 0x07, 0x37, 0x61, 0xb0, 0x03, 0x02, 
  0xa4, 0x70, 0x07, 0x9c, 0xa6, 0xbd, 0xd7, 0x2c, 0x34, 0x1e, 0x0f, 0xaf, 
  0x54, 0xb3, 0xa4, 0x03, 0x53, 0x0e, 0xb2, 0x29, 0x01, 0xe8, 0xae, 0x3b, 
  0x9f, 0xde, 0x6d, 0x1a, 0xef, 0xce, 0xac, 0x03, 0x65, 0x49, 0x25, 0x42, 
  0x7a, 0xe4, 0xac, 0x2d, 0xc4, 0x97, 0xf3, 0x0c, 0x1b, 0xdb, 0x32, 0x02, 
  0x6f, 0xb4, 0x91, 0x61, 0xed, 0xce, 0xc0, 0xa6, 0x21, 0x9a, 0xa0, 0x43, 
  0xb5, 0x48, 0x06, 0xb1, 0xf9, 0xba, 0xae, 0xdd, 0x55, 0xcb, 0xab, 0x03, 
  0x77, 0xef, 0xd9, 0x41, 0x01, 0x53, 0xee, 0x78, 0xaf, 0x7f, 0xa1, 0x89, 
  0x5b, 0xeb, 0xd0, 0x62, 0x0f, 0x39, 0x9c, 0x71, 0x85, 0x4c, 0x4b, 0x09, 
  0x4d, 0x2d, 0xa7, 0x0b, 0x85, 0xa8, 0xa0, 0xeb, 0x73, 0xa6, 0xa4, 0x58, 
  0x68, 0xfb, 0xa6, 0xba, 0x75, 0xbd, 0x95, 0xf3, 0xf8, 0xc9, 0x10, 0xd6, 
  0xe8, 0x3e, 0xf4, 0x92, 0xa6, 0xdc, 0xc6, 0x37, 0x19, 0x52, 0x61, 0x1d, 
  0x32, 0x39, 0x33, 0x87, 0xdf, 0x31, 0x79, 0xce, 0x5e, 0xa5, 0x13, 0x31, 
  0x7b, 0x3d, 0xaf, 0x43, 0xd8, 0x3b, 0x24, 0xe6, 0xc0, 0x21, 0x17, 0xb0, 
  0xfa, 0xe7, 0x3c, 0x9d, 0x04, 0xcb, 0xdf, 0x38, 0x03, 0x5b, 0x88, 0xdc, 
  0x45, 0xc4, 0x96, 0x61, 0xb1, 0xdf, 0xe5, 0x4b, 0x0e, 0x81, 0x37, 0x3f, 
  0xf5, 0xfd, 0xd5, 0x5d, 0x11, 0x0a, 0x57, 0xcb, 0x24, 0xf3, 0x5d, 0xd7, 
  0x9c, 0x54, 0x55, 0xe3, 0x9d, 0x56, 0x31, 0x00, 0x73, 0x90, 0x36, 0x7a, 
  0x6d, 0xd5, 0x4a, 0x17, 0xd8, 0x65, 0x5c, 0xb5, 0xcc, 0x9c, 0xbe, 0xd8, 
  0x02, 0x12, 0xad, 0xcc, 0xfa, 0xb4, 0xea, 0x71, 0xfb, 0x4b, 0x59, 0x98, 
  0x46, 0xa1, 0x61, 0x6a, 0x5d, 0xdc, 0x90, 0xdd, 0x72, 0xa8, 0x59, 0x48, 
  0x9d, 0xb3, 0x25, 0xec, 0x4a, 0x99, 0x1f, 0xd7, 0x55, 0xbf, 0xe6, 0x81, 
  0x9e, 0xab, 0xb2, 0xfb, 0xd0, 0xaf, 0xa7, 0xe5, 0x2f, 0x1c, 0x39, 0x1e, 
  0x8c, 0x5a, 0xc6, 0x12, 0x85, 0xfd, 0x93, 0xf0, 0xf7, 0x6e, 0x0d, 0xa4, 
  0x9e, 0xd1, 0x85, 0xa0, 0x8b, 0xf0, 0x42, 0xf9, 0x66, 0x49, 0x73, 0x32, 
  0xd0, 0x5c, 0x96, 0x2e, 0x67, 0x52, 0x59, 0x7e, 0x94, 0xd8, 0x90, 0x43, 
  0x3d, 0x4f, 0xa1, 0x9d, 0x3e, 0xca, 0x01, 0x6b, 0x0c, 0x66, 0xa6, 0x8f, 
  0x33, 0xea, 0x07, 0x3a, 0x61, 0x47, 0xd5, 0x59, 0x15, 0x88, 0x3a, 0x2f, 
  0xc0, 0x5a, 0x70, 0x12, 0x55, 0xe3, 0x04, 0x30, 0xbb, 0x82, 0xba, 0x4f, 
  0x0f, 0x27, 0x2a, 0xbd, 0x05, 0x07, 0x08, 0xed, 0xd0, 0xc6, 0xe9, 0x34, 
  0x35, 0x34, 0xc8, 0xb3, 0xc9, 0x28, 0xdf, 0x42, 0x0c, 0x64, 0xd7, 0x27, 
  0x42, 0xd0, 0xfe, 0x07, 0x24, 0xf0, 0xb5, 0xd5, 0xf4, 0x58, 0x24, 0x47, 
  0x2b, 0xdb, 0x47, 0xc1, 0x2a, 0x50, 0xf0, 0x08, 0xe0, 0xfd, 0x07, 0xe1, 
  0x5c, 0x05, 0x38, 0xec, 0x2e, 0x1b, 0x28, 0xea, 0xec, 0x22, 0x28, 0x45, 
  0xe0, 0x53, 0xc6, 0x5d, 0xde, 0x00, 0x02, 0xec, 0x05, 0xf5, 0x0b, 0x08, 
  0x1b, 0x25, 0xd4, 0x09, 0x60, 0x7f, 0xd4, 0x18, 0x59, 0x44, 0x07, 0x45, 
  0xf2, 0x3a, 0xe8, 0x44, 0x11, 0xe7, 0xb9, 0x25, 0x00, 0xee, 0xe1, 0xfd, 
  0x41, 0x01, 0xe5, 0xe9, 0x53, 0x12, 0xa0, 0x10, 0x67, 0x82, 0x5b, 0x12, 
  0xf7, 0xff, 0x21, 0x7d, 0x02, 0xd6, 0xed, 0x2b, 0x8a, 0x81, 0x2c, 0xab, 
  0x36, 0xd6, 0xb2, 0x8f, 0x30, 0x7c, 0x67, 0x5c, 0xfc, 0xbc, 0xc3, 0xa2, 
  0xfa, 0xa1, 0x23, 0x96, 0x8e, 0xa7, 0xc0, 0x79, 0x11, 0xaf, 0x1e, 0x36, 
  0x95, 0x98, 0x20, 0x05, 0xed, 0x86, 0x0d, 0xd6, 0x27, 0x97, 0x19, 0x8e, 
  0xa3, 0xe3, 0x33, 0x9d, 0xd4, 0x27, 0x7c, 0x07, 0x78, 0x30, 0xe6, 0xfc, 
  0xe6, 0x4e, 0x87, 0xbd, 0x77, 0x48, 0xa5, 0x25, 0x33, 0x91, 0x2e, 0x79, 
  0x45, 0x15, 0x34, 0x88, 0x5b, 0x5f, 0xcd, 0x63, 0x48, 0xed, 0xeb, 0xcd, 
  0xd3, 0xf2, 0xf1, 0x59, 0x65, 0x9e, 0x70, 0x2e, 0x96, 0xe6, 0x59, 0x93, 
  0x96, 0xe6, 0x2d, 0xbf, 0x13, 0xd1, 0xfd, 0xbf, 0x52, 0x67, 0x53, 0xe2, 
  0x4d, 0x1c, 0xf5, 0x7e, 0x36, 0x13, 0x7c, 0x34, 0xb5, 0x6b, 0x46, 0x9b, 
  0x8b, 0xc4, 0x25, 0x9b, 0xf6, 0x10, 0x73, 0x44, 0xc2, 0x61, 0xdb, 0x11, 
  0xe8, 0x7b, 0x3e, 0x68, 0x58, 0x2c, 0xaa, 0xf9, 0x1d, 0x84, 0x9e, 0x6c, 
  0x2d, 0x8e, 0xe3, 0x62, 0x97, 0x95, 0x4d, 0x7f, 0xac, 0xe6, 0x5b, 0xde, 
  0x26, 0x6c, 0x7b, 0x51, 0x14, 0x82, 0xf0, 0x66, 0x54, 0x40, 0xdb, 0x68, 
  0x4a, 0xb7, 0x85, 0x01, 0x88, 0x44, 0xa6, 0x53, 0xa2, 0x16, 0x00, 0x4e, 
  0xbd, 0x10, 0x3e, 0xb7, 0x94, 0xea, 0xec, 0x2b, 0xbe, 0x60, 0x82, 0xdd, 
  0x08, 0xb3, 0xb4, 0x5a, 0x6b, 0x8d, 0xc6, 0x14, 0xc6, 0x9e, 0x2a, 0x58, 
  0xe4, 0x14, 0xd0, 0xa0, 0x76, 0xc3, 0x09, 0x1f, 0xa7, 0xb8, 0x31, 0x1d, 
  0x34, 0xb3, 0x45, 0x0a, 0x05, 0x5e, 0x5b, 0xd1, 0xed, 0xd7, 0xb4, 0xca, 
  0xcb, 0x59, 0x0f, 0x51, 0x44, 0x7f, 0xd5, 0xb5, 0xb0, 0xa3, 0x63, 0x37, 
  0xc9, 0x40, 0x96, 0x30, 0x50, 0xc2, 0xa4, 0xae, 0xae, 0x29, 0x8e, 0xea, 
  0xfe, 0x50, 0x53, 0x44, 0xb7, 0x2a, 0x4a, 0x3d, 0x33, 0xad, 0xb4, 0x6b, 
  0x7d, 0x1f, 0x1c, 0x6b, 0x09, 0xc1, 0x42, 0xb1, 0x44, 0xdd, 0x74, 0x27, 
  0x3d, 0x4b, 0x02, 0x75, 0xa6, 0x14, 0x2f, 0x61, 0x34, 0xb3, 0x56, 0x37, 
  0x2c, 0xdd, 0x59, 0xe3, 0x93, 0x4b, 0xb5, 0x6b, 0xa1, 0x4a, 0x3a, 0x06, 
  0xeb, 0xfd, 0xa5, 0x19, 0xa3, 0x37, 0xdc, 0xed, 0x15, 0xe1, 0x21, 0x6e, 
  0x9d, 0x2b, 0x9f, 0x8a, 0x39, 0x8c, 0x9d, 0xc2, 0x82, 0x1c, 0x16, 0x44, 
  0x78, 0xa6, 0xb7, 0xb7, 0x36, 0x27, 0x0e, 0xc3, 0x2d, 0x79, 0xf8, 0x53, 
  0x27, 0x4d, 0xac, 0x62, 0x87, 0x51, 0xee, 0xa0, 0x32, 0x73, 0x16, 0xb9, 
  0xbe, 0x6e, 0xe5, 0xd9, 0x1e, 0xc7, 0x2f, 0xf7, 0x78, 0x0b, 0xfc, 0x54, 
  0xbf, 0x2f, 0x65, 0x03, 0xf0, 0xff, 0xcf, 0x96, 0x84, 0xe7, 0xac, 0x70, 
  0xf0, 0x53, 0x86, 0x07, 0x1b, 0x4d, 0x4c, 0x24, 0x3c, 0x6d, 0x5e, 0xa7, 
  0x1a, 0xd6, 0x66, 0x81, 0x92, 0xf3, 0x85, 0x3f, 0xed, 0xbc, 0x68, 0xf5, 
  0xd3, 0x05, 0x29, 0xf6, 0x2a, 0xbc, 0xaf, 0xcf, 0xe8, 0x40, 0xa0, 0xff, 
  0x05, 0xb1, 0xad, 0xe8, 0x77, 0x5b, 0x14, 0x3f, 0xb3, 0x65, 0x3a, 0x18, 
  0x38, 0x45, 0x3b, 0x66, 0xc2, 0xfe, 0xb7, 0xf6, 0x68, 0x38, 0x10, 0x0e, 
  0x2d, 0xdb, 0xa3, 0x6d, 0xdb, 0x3b, 0xa2, 0x24, 0x60, 0x5a, 0xde, 0x4c, 
  0x15, 0x5b, 0xd5, 0x5c, 0x91, 0x73, 0xc7, 0xcc, 0xcc, 0xf6, 0xfe, 0x12, 
  0xe0, 0x51, 0xc1, 0x07, 0x16, 0xfb, 0x43, 0xc7, 0xae, 0xdf, 0x12, 0xd4, 
  0x0f, 0x43, 0x99, 0x69, 0x44, 0xe4, 0xe2, 0x7f, 0xf1, 0xb4, 0xe2, 0xe1, 
  0xe1, 0xaf, 0x3e, 0xe1, 0x9b, 0x26, 0xb6, 0xc9, 0xbf, 0x7a, 0x3b, 0x8a, 
  0x40, 0x5d, 0xc4, 0x0b, 0x4a, 0xd1, 0xec, 0x41, 0xe2, 0xfe, 0xa5, 0xd0, 
  0x84, 0x66, 0x87, 0x61, 0x12, 0xf4, 0xe3, 0xfc, 0x24, 0x76, 0x32, 0x44, 
  0xce, 0xfc, 0xcc, 0x66, 0x74, 0x27, 0xd9, 0x62, 0x67, 0x5e, 0x17, 0xd3, 
  0xda, 0xfe, 0x9d, 0x8b, 0x5c, 0x14, 0x10, 0x3e, 0xed, 0x44, 0x41, 0x03, 
  0x81, 0x51, 0xdc, 0x23, 0x5b, 0x33, 0x2d, 0xd0, 0xed, 0x52, 0x70, 0x59, 
  0xb3, 0xad, 0xa8, 0x29, 0x3c, 0xe0, 0xa3, 0x6f, 0xa6, 0xd5, 0xc6, 0xa0, 
  0x6e, 0x5d, 0xf7, 0x2f, 0x5f, 0xa7, 0x9e, 0xd0, 0xef, 0xf4, 0xb6, 0xfe, 
  0x90, 0x3c, 0x35, 0xd0, 0xc8, 0x62, 0xbd, 0x87, 0x31, 0x04, 0x07, 0xd1, 
  0x8d, 0x33, 0xf7, 0x64, 0xc2, 0x3e, 0xb7, 0x5f, 0x7f, 0x5d, 0xc9, 0xe1, 
  0x35, 0x89, 0x76, 0xc9, 0xb5, 0xed, 0x6c, 0xc7, 0xc8, 0x6a, 0xa4, 0xaa, 
  0x26, 0xef, 0x0d, 0x0a, 0x1a, 0x39, 0x5b, 0x45, 0x17, 0x82, 0xa1, 0xb9, 
  0xa4, 0x25, 0x99, 0x9d, 0xb1, 0x09, 0xe5, 0x9f, 0x42, 0x69, 0x63, 0x34, 
  0x7b, 0xb7, 0xcb, 0x96, 0x7a, 0x11, 0xd8, 0x6b, 0x1f, 0xcb, 0xb2, 0x60, 
  0xe7, 0x99, 0xc1, 0x09, 0x5d, 0x0f, 0x92, 0xcb, 0x9d, 0x31, 0xba, 0x13, 
  0x9f, 0x38, 0xca, 0x8b, 0xe5, 0x93, 0xf5, 0x09, 0x60, 0xdd, 0x51, 0x0e, 
  0xe8, 0xf5, 0xf0, 0x1c, 0x3a, 0xc7, 0xb4, 0x5f, 0xd5, 0x7e, 0x05, 0xb1, 
  0x8f, 0x3b, 0x85, 0xfa, 0x50, 0xdc, 0xba, 0x70, 0xce, 0xc3, 0x2c, 0x3b, 
  0x44, 0x12, 0xba, 0xf8, 0xf4, 0x72, 0xb9, 0xa5, 0xab, 0x6a, 0x3f, 0x6e, 
  0xd2, 0x01, 0x19, 0x59, 0xbe, 0x60, 0x13, 0x58, 0xf1, 0xe0, 0xac, 0xad, 
  0x97, 0xf1, 0x9e, 0xe6, 0x3a, 0x1b, 0xa7, 0x0f, 0x2e, 0xc8, 0xcb, 0x6d, 
  0x14, 0x02, 0x33, 0xd1, 0x06, 0x7f, 0x60, 0x4c, 0x3e, 0x20, 0xcd, 0x58, 
  0x94, 0x1e, 0x23, 0xd7, 0xce, 0x67, 0x25, 0x10, 0x8e, 0x0d, 0x78, 0xfd, 
  0xd7, 0x2d, 0x1f, 0xc9, 0xce, 0xed, 0x96, 0xf1, 0xba, 0x3d, 0x00, 0xc5, 
  0xff, 0xf7, 0xa9, 0x63, 0x73, 0x3a, 0x7b, 0x60, 0xdf, 0x5b, 0x45, 0xbb, 
  0x7b, 0x9a, 0xea, 0x04, 0xa6, 0x90, 0xf3, 0xab, 0x14, 0x35, 0xcf, 0x36, 
  0x61, 0xd8, 0xf3, 0x4b, 0xe5, 0x37, 0x47, 0xce, 0xbb, 0x5c, 0x4a, 0x75, 
  0x4b, 0x0a, 0x39, 0x67, 0x4b, 0x79, 0x3e, 0xd3, 0x30, 0x39, 0x5d, 0x8c, 
  0x61, 0x09, 0x23, 0xd9, 0x24, 0x7a, 0xac, 0x2b, 0x07, 0x39, 0x2a, 0xdd, 
  0x81, 0xf5, 0x11, 0xd3, 0xd5, 0xbc, 0x57, 0x2c, 0xa2, 0xac, 0x30, 0xbd, 
  0x24, 0x14, 0xdd, 0x1f, 0x88, 0x65, 0x98, 0x8f, 0xb5, 0xae, 0x3e, 0xae, 
  0xc2, 0x19, 0x41, 0x08, 0xba, 0xb9, 0x27, 0x06, 0x8b, 0xb0, 0x97, 0x9d, 
  0xfa, 0x91, 0xd1, 0xf9, 0xf1, 0x73, 0xaf, 0x36, 0x2a, 0x50, 0x90, 0xbb, 
  0x47, 0x49, 0x5e, 0x41, 0xd7, 0x50, 0xbd, 0x5c, 0xbc, 0x92, 0x4d, 0x82, 
  0xf4, 0x5d, 0xc5, 0x7c, 0xd6, 0xca, 0x2f, 0x0e, 0x1a, 0x3c, 0x6e, 0x78, 
  0x13, 0xd1, 0x6e, 0x01, 0x92, 0xed, 0x98, 0x64, 0x26, 0xa6, 0x84, 0x43, 
  0x95, 0x85, 0xbe, 0xbc, 0x88, 0x6a, 0xe9, 0x2d, 0x1a, 0x1d, 0x51, 0x92, 
  0xa1, 0xf7, 0x08, 0xe9, 0x1f, 0x81, 0x9b, 0xd1, 0x37, 0x1d, 0x14, 0x60, 
  0xad, 0x46, 0xb6, 0x02, 0x10, 0x5d, 0x19, 0x6f, 0xec, 0x31, 0xe3, 0x82, 
  0x44, 0xe5, 0xec, 0xd5, 0x2c, 0xbe, 0xc9, 0xc3, 0x1e, 0x8a, 0xff, 0x51, 
  0x30, 0x38, 0x1d, 0xd3, 0x2a, 0x6e, 0x82, 0xbb, 0x7c, 0xab, 0x56, 0x05, 
  0xb2, 0xbc, 0x6a, 0xb1, 0xd7, 0xd8, 0xe3, 0x57, 0xc0, 0x1a, 0x79, 0x71, 
  0x58, 0x95, 0x86, 0x9a, 0xaa, 0x99, 0xbc, 0xbe, 0x9d, 0xa7, 0xab, 0xb5, 
  0x3d, 0x26, 0xee, 0x1d, 0x63, 0xb6, 0x71, 0xf9, 0xdf, 0xbf, 0x09, 0x58, 
  0xde, 0x44, 0xc2, 0x26, 0x51, 0x4a, 0xb6, 0xf3, 0xed, 0x2e, 0xef, 0xba, 
  0xac, 0x5b, 0xa0, 0x9c, 0xae, 0x2b, 0x3e, 0xf1, 0xac, 0x37, 0xc8, 0x9f, 
  0x05, 0xd7, 0x20, 0xd1, 0xa4, 0xb6, 0x59, 0xa5, 0xd5, 0xd0, 0xc8, 0xed, 
  0xba, 0xcd, 0xc2, 0xbe, 0xcd, 0x1e, 0xf0, 0x42, 0x2a, 0xe7, 0xad, 0xd6, 
  0xcf, 0x06, 0xe5, 0x09, 0xc2, 0xd4, 0x15, 0xa6, 0x5e, 0xeb, 0x9f, 0x5d, 
  0xf5, 0x7f, 0xca, 0x2c, 0x64, 0x0d, 0x03, 0x6b, 0x14, 0x4c, 0x61, 0xc1, 
  0x4c, 0xe5, 0x3e, 0x22, 0x3a, 0xe9, 0xd1, 0x05, 0xd0, 0x34, 0x12, 0xa2, 
  0x30, 0x36, 0xad, 0xd8, 0x4a, 0x29, 0x00, 0xad, 0x07, 0xa8, 0xda, 0x02, 
  0x9f, 0xfb, 0xb6, 0x90, 0x2d, 0x01, 0x66, 0x0d, 0x45, 0xc2, 0xab, 0xe4, 
  0xf5, 0x5d, 0x11, 0x05, 0x43, 0xa6, 0x40, 0xfb, 0xce, 0x5d, 0x56, 0x72, 
  0xe3, 0x0d, 0x51, 0xdf, 0x67, 0xb6, 0x36, 0x7b, 0x00, 0xdc, 0x74, 0xa8, 
  0x70, 0x40, 0x9f, 0x1c, 0x61, 0xb7, 0x62, 0x50, 0x30, 0xd9, 0xfd, 0x6e, 
  0xb3, 0x68, 0x5e, 0xf0, 0xf0, 0xae, 0x66, 0x9c, 0x30, 0xf6, 0xe5, 0xa9, 
  0xa5, 0x36, 0x6d, 0xf2, 0x21, 0x6e, 0x37, 0x22, 0x4b, 0xa8, 0x0d, 0x6e, 
  0xaf, 0x7f, 0xc8, 0x27, 0x64, 0x9f, 0xac, 0xc8, 0x9b, 0xa1, 0xf3, 0x71, 
  0x5e, 0x7e, 0x01, 0x3d, 0xaf, 0x14, 0x25, 0x5f, 0xeb, 0x33, 0xa4, 0x19, 
  0xd3, 0xd7, 0x25, 0x59, 0x41, 0xfd, 0xb9, 0x39, 0xd1, 0x6b, 0x33, 0x02, 
  0xeb, 0xbd, 0x03, 0x3b, 0x1a, 0x54, 0x37, 0x6a, 0x4c, 0x3b, 0xfd, 0x22, 
  0xcb, 0x58, 0x4c, 0x9e, 0xed, 0xa9, 0x6a, 0xfa, 0xb5, 0x61, 0xb7, 0x5a, 
  0xd4, 0x3a, 0x25, 0xd5, 0x3b, 0x78, 0x9b, 0x25, 0xd6, 0xe5, 0xba, 0x37, 
  0x4b, 0xaf, 0xa9, 0x2f, 0xa7, 0x0f, 0x5c, 0x14, 0xb2, 0x6a, 0xd5, 0x15, 
  0x6f, 0x29, 0x38, 0x41, 0xac, 0x42, 0xbd, 0x2f, 0x51, 0x63, 0xdf, 0x4c, 
  0x65, 0x29, 0x6f, 0x7f, 0x37, 0x50, 0x5a, 0xc9, 0x1d, 0x40, 0xda, 0xce, 
  0x6e, 0x31, 0x4f, 0x00, 0x30, 0x0c, 0xe5, 0xa2, 0x38, 0xac, 0x11, 0x08, 
  0xf5, 0xab, 0x57, 0xb8, 0xee, 0xda, 0x1c, 0x4f, 0x33, 0x79, 0x40, 0xb2, 
  0x2c, 0x24, 0x18, 0xd7, 0xe2, 0x33, 0xd1, 0x63, 0x1a, 0x38, 0x95, 0x7f, 
  0xd6, 0xb1, 0x5c, 0x0b, 0xcb, 0xe1, 0x4f, 0x47, 0x6b, 0x76, 0x2a, 0xd7, 
  0xf8, 0x67, 0x4b, 0xb7, 0x43, 0x50, 0xb7, 0xcd, 0x3b, 0x30, 0x1b, 0xf1, 
  0xfc, 0xbd, 0x9c, 0x67, 0x68, 0xd7, 0xbc, 0xbe, 0xdd, 0x77, 0xbe, 0xb1, 
  0xbd, 0x0d, 0x46, 0xde, 0x5b, 0x31, 0x00, 0x41, 0x24, 0x06, 0xd5, 0x0c, 
  0x34, 0x3e, 0xc2, 0x2a, 0x3c, 0xdf, 0x17, 0x31, 0xff, 0xea, 0x3a, 0x6f, 
  0x38, 0xb6, 0x59, 0xf1, 0xf9, 0x4a, 0x0e, 0x2f, 0xac, 0x7f, 0x02, 0xb9, 
  0x0f, 0xdc, 0xd8, 0xfc, 0xe2, 0xb1, 0x59, 0xa9, 0xba, 0x55, 0x14, 0xdb, 
  0xfb, 0x37, 0x55, 0x1a, 0x50, 0x7f, 0x49, 0x61, 0xc9, 0x7c, 0x25, 0x2d, 
  0xc1, 0xc5, 0x30, 0x07, 0xcb, 0xc5, 0xf3, 0xdc, 0xe3, 0xea, 0xfe, 0xb0, 
  0x44, 0x05, 0x73, 0x1f, 0xc9, 0xd3, 0x60, 0xd6, 0xd5, 0x39, 0x61, 0x5c, 
  0xf8, 0x5f, 0xac, 0xe8, 0x42, 0xe7, 0xea, 0x0e, 0xe9, 0x1b, 0xf6, 0x6a, 
  0xaf, 0x1e, 0xd7, 0x51, 0xf4, 0xd7, 0x30, 0x2a, 0x61, 0xab, 0x4c, 0x17, 
  0xbf, 0x49, 0x35, 0xbd, 0xf4, 0x5a, 0xe9, 0xbf, 0x74, 0xd8, 0x4c, 0x39, 
  0x5a, 0x20, 0xf8, 0x19, 0x65, 0x16, 0x13, 0x53, 0x52, 0x14, 0x39, 0xf1, 
  0x48, 0xc7, 0x3b, 0x22, 0x2e, 0x3f, 0x1b, 0xf6, 0xd0, 0x02, 0xdd, 0x1c, 
  0xd2, 0xa8, 0x48, 0xcc, 0xac, 0x45, 0xb9, 0xbb, 0xb8, 0x76, 0xff, 0xbe, 
  0x24, 0xe5, 0xb0, 0xc0, 0xbc, 0x2d, 0x36, 0xf0, 0x2c, 0x0f, 0xc1, 0xa3, 
  0xcc, 0xf9, 0xc4, 0xa0, 0x22, 0xaf, 0xd8, 0x5b, 0x36, 0x6f, 0x4a, 0xd6, 
  0x1f, 0x3a, 0xfb, 0x10, 0xd1, 0xdf, 0x29, 0xb9, 0x69, 0xd7, 0xf2, 0x2d, 
  0x33, 0xba, 0xb6, 0x2c, 0x49, 0x7f, 0xbb, 0x2d, 0x42, 0xff, 0x3d, 0x24, 
  0x4e, 0x41, 0xe4, 0x4e, 0x4e, 0x2e, 0xc2, 0xc3, 0x38, 0x06, 0x4e, 0x41, 
  0x64, 0x22, 0xb6, 0xd9, 0xce, 0xf3, 0x48, 0xde, 0x6c, 0x36, 0xb0, 0x56, 
  0xce, 0xcd, 0xd1, 0xb7, 0x43, 0x32, 0x3f, 0xc5, 0xe9, 0xe6, 0xe6, 0x47, 
  0xa6, 0x98, 0x1b, 0xb3, 0x9c, 0x9f, 0x3e, 0xd3, 0xac, 0x3c, 0x9c, 0x1d, 
  0x32, 0xb1, 0x2f, 0xce, 0x12, 0x16, 0xe6, 0xf0, 0x65, 0x54, 0xc3, 0x6b, 
  0x5d, 0x60, 0x15, 0x88, 0xd0, 0x7f, 0x91, 0x22, 0xf9, 0x9a, 0x56, 0xe5, 
  0xef, 0x9a, 0xc6, 0x05, 0xf8, 0x85, 0x8d, 0x3c, 0x14, 0x65, 0xc4, 0x67, 
  0x38, 0xe9, 0x1e, 0xd0, 0x1a, 0x44, 0x81, 0x8d, 0x60, 0xeb, 0x4e, 0x9d, 
  0x16, 0xa4, 0x0d, 0x22, 0x5d, 0x88, 0x94, 0x8d, 0x1d, 0xe4, 0xf4, 0xed, 
  0x1d, 0x65, 0x28, 0x62, 0xb9, 0x29, 0x5c, 0x07, 0x5b, 0x54, 0xe2, 0x2d, 
  0x34, 0x47, 0x50, 0x5e, 0x9c, 0x0a, 0xef, 0x1f, 0xe2, 0xe6, 0x75, 0xe9, 
  0x29, 0x39, 0xbe, 0x37, 0x09, 0x00, 0x5f, 0x6e, 0x23, 0x90, 0xcb, 0xf7, 
  0x88, 0xb3, 0x22, 0x71, 0x6d, 0xca, 0xfb, 0x5e, 0x48, 0x63, 0x12, 0x27, 
  0x5d, 0x36, 0xa9, 0x3e, 0x3a, 0x12, 0xf0, 0x05, 0x9a, 0xa8, 0x10, 0x12, 
  0x1e, 0xac, 0xb5, 0x35, 0x8b, 0xdc, 0x39, 0x0b, 0x38, 0x99, 0xe4, 0x86, 
  0xde, 0xc8, 0xa8, 0xe8, 0xec, 0x3d, 0x5e, 0x24, 0x8a, 0xfe, 0x64, 0x77, 
  0x7d, 0x81, 0xb2, 0xd5, 0x5a, 0x3f, 0x64, 0x12, 0x38, 0x1a, 0x33, 0xa2, 
  0xd4, 0x26, 0x21, 0x21, 0xc8, 0x69, 0xed, 0x46, 0xe7, 0x47, 0x82, 0xaa, 
  0x2c, 0xa7, 0xfb, 0xa2, 0x1f, 0x3c, 0x19, 0x87, 0x36, 0x8b, 0x59, 0xf1, 
  0x84, 0x53, 0x05, 0x45, 0xbb, 0xa2, 0x96, 0x52, 0x59, 0x9f, 0x99, 0xc5, 
  0x56, 0xbf, 0x03, 0x3e, 0x9f, 0xbf, 0xea, 0x41, 0x4c, 0xe1, 0xf8, 0xbf, 
  0x21, 0x30, 0x14, 0x5f, 0xbf, 0xe4, 0xb7, 0x2e, 0xec, 0x39, 0xf7, 0x1e, 
  0xd5, 0xb2, 0x94, 0xf8, 0x48, 0x60, 0xce, 0x6a, 0xa7, 0xcf, 0xba, 0x51, 
  0x77, 0xdb, 0x38, 0x4a, 0xb4, 0x1f, 0x23, 0x71, 0x06, 0xa6, 0x3e, 0x6d, 
  0x79, 0x4f, 0x05, 0xda, 0x53, 0xfd, 0xdf, 0x33, 0xdc, 0x70, 0x45, 0x1e, 
  0x37, 0xb9, 0x01, 0x5b, 0xdc, 0x20, 0x57, 0x3c, 0x7f, 0x26, 0x88, 0x0c, 
  0x3a, 0x30, 0xcd, 0x28, 0xa9, 0x50, 0xd5, 0xf4, 0xdd, 0x85, 0x52, 0x7a, 
  0xed, 0x35, 0x9c, 0xeb, 0xd5, 0xc6, 0x87, 0x98, 0x14, 0x9c, 0xc2, 0x5e, 
  0x36, 0x31, 0xcf, 0x2b, 0x79, 0x16, 0x9b, 0x0c, 0x42, 0x55, 0x43, 0x10, 
  0xbe, 0x16, 0x55, 0xa4, 0x4d, 0xc0, 0xf1, 0x7f, 0xb7, 0x67, 0x67, 0x5d, 
  0x56, 0x97, 0xa6, 0x3a, 0x0b, 0x6d, 0xa9, 0xc6, 0x09, 0x05, 0xcd, 0x21, 
  0xa2, 0x08, 0x34, 0x09, 0x90, 0xcc, 0xda, 0x35, 0x3f, 0xa3, 0xa9, 0x41, 
  0xdb, 0x9d, 0x39, 0x9d, 0x39, 0x7c, 0x02, 0xd1, 0x15, 0xa1, 0xce, 0x48, 
  0xf3, 0x9b, 0x74, 0xf3, 0xf9, 0x20, 0x37, 0xfb, 0x22, 0xef, 0xe8, 0x47, 
  0xaf, 0x5b, 0x4b, 0xf2, 0x7a, 0xf2, 0xda, 0x73, 0xa2, 0xf8, 0x47, 0xf0, 
  0xa5, 0xe5, 0xdb, 0x56, 0xc0, 0x2c, 0x72, 0xaf, 0x24, 0x38, 0x73, 0x64, 
  0xfc, 0x6e, 0x43, 0xb0, 0xa4, 0xf7, 0x62, 0xf9, 0x81, 0xc1, 0xa1, 0x20, 
  0x0f, 0x6e, 0xa1, 0x6e, 0xb1, 0x54, 0xda, 0xcb, 0x94, 0x3b, 0xc5, 0xb3, 
  0x09, 0x8e, 0xba, 0xc3, 0xbc, 0x7c, 0xcb, 0x1c, 0xe0, 0xbf, 0x6b, 0xee, 
  0xe5, 0xcb, 0xd4, 0x0d, 0xf2, 0x18, 0x99, 0xad, 0x55, 0x74, 0xf6, 0x0a, 
  0x04, 0x13, 0x85, 0xdd, 0x43, 0x8d, 0x73, 0x70, 0xf6, 0x00, 0x11, 0xb4, 
  0xb0, 0x64, 0xe1, 0x73, 0x15, 0x4e, 0x0f, 0x38, 0x9b, 0x36, 0xed, 0xbd, 
  0x33, 0x4b, 0x87, 0x4a, 0x10, 0x22, 0xa0, 0xd2, 0x1d, 0x6b, 0xab, 0xe4, 
  0x2f, 0x6f, 0x6e, 0x36, 0x55, 0x6d, 0x4d, 0xe9, 0x6b, 0x51, 0xb6, 0x51, 
  0x8b, 0xd7, 0xfa, 0xcf, 0xaf, 0xb2, 0x2a, 0x0f, 0x2f, 0x90, 0x04, 0x42, 
  0x49, 0xfa, 0x21, 0x16, 0xd5, 0x1a, 0x67, 0xcb, 0xc6, 0x59, 0x06, 0xa4, 
  0xa4, 0x68, 0xcb, 0xaa, 0x6a, 0x63, 0x12, 0x49, 0x51, 0xa8, 0x8b, 0x48, 
  0x93, 0x27, 0xa2, 0x97, 0xbd, 0x56, 0x75, 0xbc, 0xd6, 0x3c, 0x8f, 0x41, 
  0xff, 0x7e, 0xca, 0x93, 0x08, 0xa7, 0x4c, 0x3b, 0x8c, 0x96, 0xa4, 0x01, 
  0x10, 0x6b, 0x37, 0xf6, 0x16, 0xa4, 0x6e, 0x0a, 0x8d, 0x6c, 0x00, 0x3d, 
  0x7f, 0x43, 0x09, 0xe5, 0x05, 0x31, 0x72, 0xd0, 0x40, 0xac, 0x2b, 0x5d, 
  0xca, 0xda, 0x35, 0xe5, 0x5a, 0xb0, 0xeb, 0x09, 0x3a, 0xd1, 0x72, 0xd8, 
  0xfc, 0x03, 0x6c, 0x93, 0xa8, 0xe0, 0x48, 0xb5, 0xda, 0xf4, 0xff, 0xff, 
  0x04, 0x00, 0x00, 0x00, 0x90, 0x01, 0x00, 0x00, 0xe3, 0xad, 0x1d, 0xbe, 
  0x00, 0x07, 0x39, 0xbe, 0x0a, 0xba, 0x21, 0xbd, 0xd6, 0x08, 0x16, 0xbe, 
  0x7f, 0x5d, 0x02, 0xbe, 0xd5, 0x81, 0x6d, 0xbe, 0x56, 0xe5, 0x44, 0xbe, 
  0x79, 0x35, 0x78, 0x3d, 0xb8, 0xd9, 0xcf, 0x3d, 0x57, 0xcd, 0x09, 0xbe, 
  0xaa, 0x1c, 0x24, 0x3e, 0x0d, 0x7d, 0x04, 0xbd, 0x68, 0xc8, 0x52, 0x3e, 
  0x82, 0xb1, 0xc8, 0x3d, 0x9a, 0x96, 0x2e, 0xbe, 0x02, 0xea, 0x03, 0xbe, 
  0xde, 0xc8, 0x09, 0xbd, 0xff, 0x7d, 0x14, 0x3e, 0x5e, 0x4d, 0x03, 0x3f, 
  0xcf, 0x75, 0xe7, 0x3e, 0x8c, 0x29, 0xf1, 0xbd, 0xef, 0x63, 0x88, 0x3e, 
  0x6c, 0x15, 0x44, 0xbe, 0xce, 0x91, 0x05, 0xbc, 0xbc, 0x2a, 0x60, 0xbe, 
  0x1a, 0x75, 0x81, 0xbe, 0x88, 0x33, 0xae, 0xbc, 0xb4, 0xb2, 0x35, 0xbe, 
  0xef, 0x88, 0xa5, 0xbc, 0x1b, 0x0f, 0x26, 0x3f, 0xfc, 0x60, 0xdc, 0x3e, 
  0xbe, 0x01, 0x15, 0x3f, 0x3f, 0xa6, 0x41, 0x3f, 0xe5, 0xb2, 0xd2, 0xbd, 
  0xdd, 0xb3, 0xa2, 0xbb, 0x57, 0x96, 0x91, 0xbd, 0xd5, 0x5d, 0x39, 0x3f, 
  0x03, 0x45, 0x97, 0x3e, 0xe3, 0x1c, 0x7a, 0xbd, 0xe6, 0x84, 0xd6, 0x3e, 
  0x1c, 0xfb, 0x49, 0x3e, 0x00, 0x06, 0xe4, 0xbc, 0xfd, 0xa4, 0x2e, 0xbe, 
  0x81, 0xd4, 0x25, 0x3e, 0xb6, 0x71, 0x19, 0x3f, 0x3e, 0xfb, 0x3c, 0x3d, 
  0xdb, 0xa0, 0x6b, 0xbe, 0x92, 0xdb, 0xd9, 0xbd, 0xf6, 0xf9, 0x8d, 0xbc, 
  0xb2, 0x7c, 0x9d, 0xbd, 0x37, 0x4d, 0xb2, 0xbd, 0x9b, 0xa4, 0xdc, 0x3e, 
  0x7d, 0xf9, 0xca, 0x3d, 0x04, 0x1e, 0x1d, 0xbe, 0x72, 0x3b, 0x45, 0xbe, 
  0x43, 0x2d, 0x2b, 0x3e, 0x53, 0xd9, 0x0f, 0xbe, 0x5e, 0xc7, 0x40, 0xbb, 
  0x22, 0xb2, 0x9b, 0xbd, 0x4a, 0xc5, 0x45, 0xbe, 0x90, 0x0b, 0x8e, 0x3d, 
  0xb0, 0x4f, 0x2e, 0x3e, 0x98, 0x2e, 0x11, 0xbe, 0x64, 0x68, 0xa9, 0x3c, 
  0x95, 0x69, 0xa4, 0xbd, 0x71, 0x3c, 0xfd, 0xbd, 0xad, 0x5d, 0x5a, 0x3f, 
  0x29, 0x38, 0x6a, 0xbe, 0x0a, 0x41, 0x7e, 0x3f, 0x40, 0x4b, 0x32, 0x3d, 
  0x2b, 0x01, 0x76, 0xbe, 0x91, 0xac, 0x85, 0x3e, 0xf0, 0xbf, 0x50, 0x3e, 
  0x15, 0x7b, 0x64, 0x3e, 0x49, 0xc7, 0xde, 0xbd, 0x0e, 0x88, 0x0d, 0xbe, 
  0x0e, 0x19, 0x48, 0xbe, 0x3d, 0x0d, 0x48, 0x3f, 0x33, 0x0a, 0x40, 0xbe, 
  0xcf, 0xce, 0x12, 0x3d, 0xb8, 0x1c, 0xca, 0x3e, 0x2b, 0x62, 0x53, 0xbe, 
  0xac, 0x0b, 0x24, 0x3e, 0xab, 0x05, 0x1a, 0xbe, 0x26, 0xe3, 0xb4, 0xbd, 
  0x86, 0xd3, 0x92, 0x3e, 0x13, 0xb5, 0x4c, 0xbe, 0x5f, 0x7d, 0x1a, 0xbe, 
  0x44, 0xa0, 0x72, 0x3e, 0x0d, 0x9c, 0x04, 0x3f, 0x24, 0x4c, 0x05, 0x3f, 
  0xd0, 0x6f, 0x1f, 0x3f, 0xdb, 0x4a, 0x1f, 0x3f, 0x5c, 0xea, 0xe7, 0x3e, 
  0x7b, 0x9e, 0x76, 0xbe, 0xf5, 0xd5, 0x16, 0xbe, 0x7c, 0xaf, 0x84, 0x3e, 
  0x0f, 0x21, 0x69, 0x3e, 0x88, 0xd5, 0xfc, 0xbc, 0xf2, 0xbf, 0x44, 0x3e, 
  0x76, 0xf6, 0xff, 0xff, 0x04, 0x00, 0x00, 0x00, 0x04, 0x00, 0x00, 0x00, 
  0x57, 0x66, 0x84, 0x3f, 0x86, 0xf6, 0xff, 0xff, 0x04, 0x00, 0x00, 0x00, 
  0x90, 0x01, 0x00, 0x00, 0x30, 0x68, 0x9c, 0xbd, 0x42, 0x6d, 0x57, 0xbd, 
  0x3e, 0x32, 0x03, 0xbc, 0x25, 0x14, 0x3e, 0xbc, 0x80, 0x6e, 0x92, 0xbd, 
  0x38, 0x7b, 0x8c, 0xbc, 0xc7, 0x50, 0x79, 0xbd, 0xa8, 0x04, 0x62, 0x3b, 
  0x10, 0xa3, 0xf5, 0x3c, 0xaa, 0xfd, 0x57, 0xbc, 0xaf, 0xe3, 0x19, 0x3d, 
  0x73, 0xa3, 0xd3, 0xbb, 0x68, 0x43, 0xb4, 0x3d, 0x87, 0xdc, 0x47, 0x3d, 
  0x08, 0xc5, 0xfe, 0xbc, 0x82, 0x2c, 0x04, 0xbd, 0xa2, 0xd0, 0xa7, 0xbc, 
  0x18, 0xd1, 0xb2, 0x3d, 0x74, 0xad, 0x93, 0x3e, 0x01, 0x42, 0x78, 0x3e, 
  0x09, 0x08, 0x96, 0xbb, 0x1e, 0xe2, 0x0c, 0x3e, 0x52, 0xc6, 0xfe, 0xbc, 
  0xaf, 0x2f, 0xd0, 0xbb, 0x0d, 0x03, 0x47, 0xbd, 0x1f, 0xc0, 0x88, 0xbd, 
  0x00, 0x00, 0x00, 0x00, 0x5f, 0x81, 0x12, 0xbd, 0x73, 0xa6, 0x40, 0xbc, 
  0xa8, 0x84, 0xcd, 0x3e, 0x12, 0x11, 0x62, 0x3e, 0x83, 0x4b, 0xbb, 0x3e, 
  0x1c, 0x57, 0xbf, 0x3e, 0x19, 0x8d, 0x45, 0xbd, 0x20, 0x82, 0x03, 0xbc, 
  0xf7, 0x44, 0x0f, 0xbd, 0x87, 0x20, 0xcd, 0x3e, 0x1c, 0xe3, 0x10, 0x3e, 
  0x22, 0xf5, 0x17, 0xbd, 0x3c, 0xdc, 0x4d, 0x3e, 0x9d, 0xe5, 0xee, 0x3c, 
  0x00, 0x00, 0x00, 0x00, 0x6e, 0xb1, 0xcb, 0xba, 0x5f, 0x35, 0x9b, 0x3d, 
  0x6e, 0xd8, 0xa5, 0x3e, 0x44, 0xe1, 0x1d, 0x3c, 0x93, 0x4a, 0xc8, 0xbc, 
  0x6f, 0x9f, 0x13, 0xbc, 0x50, 0xbc, 0x14, 0xbd, 0x00, 0x00, 0x00, 0x00, 
  0x90, 0xe1, 0x58, 0xbc, 0xf0, 0xfa, 0x5f, 0x3e, 0xc6, 0x02, 0xaa, 0x3d, 
  0xaa, 0x90, 0x6c, 0xbc, 0xbd, 0xc1, 0xc7, 0xbc, 0xb8, 0x1a, 0x43, 0x3d, 
  0xfa, 0x44, 0x1d, 0xbd, 0xff, 0x31, 0x5c, 0xba, 0x4c, 0xef, 0x4d, 0xbd, 
  0x88, 0x78, 0x09, 0xbd, 0xcb, 0xfe, 0x59, 0x3c, 0x27, 0x8c, 0xba, 0x3b, 
  0x18, 0x60, 0x51, 0xbc, 0x57, 0x4d, 0xfd, 0x3b, 0x0e, 0xeb, 0xb8, 0xbb, 
  0x2c, 0x3b, 0x32, 0xbd, 0xd9, 0x35, 0xfd, 0x3e, 0x70, 0xc4, 0x2b, 0xbd, 
  0x6c, 0x80, 0x11, 0x3f, 0xc2, 0x92, 0x68, 0x3c, 0x27, 0x28, 0x99, 0xba, 
  0x85, 0x00, 0x2a, 0x3e, 0x00, 0x00, 0x00, 0x00, 0xf4, 0x3f, 0xfa, 0x3d, 
  0xd6, 0x9d, 0xda, 0xbb, 0x13, 0xf0, 0x37, 0xbd, 0x4b, 0x9e, 0x33, 0xbd, 
  0xcc, 0xee, 0xec, 0x3e, 0xe0, 0x21, 0xfb, 0xbc, 0xdc, 0x57, 0x44, 0x3b, 
  0x7b, 0x04, 0x7e, 0x3e, 0xbc, 0x7f, 0xa7, 0xbb, 0xa0, 0x91, 0xaa, 0x3d, 
  0x0e, 0xa4, 0x81, 0xbd, 0x9d, 0xbd, 0x45, 0xbc, 0x83, 0xcc, 0x1c, 0x3e, 
  0xa0, 0x80, 0x79, 0xbd, 0x3e, 0xca, 0x96, 0xbb, 0xbd, 0x3b, 0xcc, 0x3d, 
  0x5c, 0x1a, 0x9d, 0x3e, 0xbd, 0xed, 0x85, 0x3e, 0x61, 0x17, 0xc3, 0x3e, 
  0xff, 0x90, 0xa9, 0x3e, 0xa1, 0x18, 0x73, 0x3e, 0x7c, 0xbd, 0x93, 0xbd, 
  0xb4, 0xfa, 0x10, 0xbd, 0x67, 0xfd, 0x12, 0x3e, 0xf2, 0x03, 0x1e, 0x3e, 
  0x8a, 0xc9, 0x3c, 0xbd, 0xd9, 0x71, 0xcb, 0x3d, 0x22, 0xf8, 0xff, 0xff, 
  0x04, 0x00, 0x00, 0x00, 0xd0, 0x07, 0x00, 0x00, 0x15, 0x74, 0x79, 0x3d, 
  0x1d, 0x5b, 0xb9, 0x3d, 0x07, 0x83, 0x41, 0x3e, 0x94, 0x1f, 0x57, 0xbe, 
  0xe2, 0x96, 0xc9, 0xbd, 0x25, 0x66, 0x67, 0xbe, 0xcf, 0x0b, 0x05, 0x3e, 
  0xfa, 0xb3, 0x0d, 0x3e, 0x10, 0x43, 0x3a, 0xbd, 0xa5, 0xf3, 0x7b, 0xbe, 
  0x8b, 0xd4, 0x1d, 0xbd, 0x06, 0xdb, 0xf5, 0x3d, 0x40, 0x1b, 0x5f, 0xbe, 
  0x3d, 0xa6, 0x17, 0x3d, 0x91, 0xb0, 0x3c, 0x3e, 0xc3, 0x6a, 0xb7, 0x3d, 
  0x9f, 0x03, 0x2d, 0xbe, 0xd5, 0x79, 0xdc, 0xbc, 0x48, 0x50, 0xa9, 0x3b, 
  0x6b, 0xdf, 0x16, 0x3c, 0xdd, 0x23, 0x1d, 0x3e, 0x21, 0x5e, 0xd7, 0xbb, 
  0x45, 0xf6, 0x45, 0x3d, 0x00, 0x9e, 0x15, 0x3d, 0xb2, 0x98, 0xbf, 0x3d, 
  0x1e, 0x24, 0x9b, 0x3d, 0x6f, 0xf7, 0x55, 0xbe, 0x5e, 0x5a, 0x26, 0x3e, 
  0xa5, 0xf5, 0x1e, 0xbd, 0xcc, 0xc7, 0xa3, 0x3d, 0x1e, 0x08, 0x1a, 0xbe, 
  0x08, 0x7d, 0x2a, 0xbe, 0x72, 0x41, 0x40, 0x3e, 0x56, 0xbf, 0x6c, 0x3d, 
  0x7c, 0x39, 0x02, 0xbe, 0x80, 0xf5, 0x14, 0xbd, 0x92, 0xce, 0xf7, 0xbd, 
  0x36, 0x67, 0x89, 0xbd, 0xc7, 0x13, 0x50, 0x3d, 0x7c, 0xfd, 0x5b, 0x3d, 
  0xdf, 0xf8, 0x26, 0x3d, 0x74, 0x07, 0x63, 0xbe, 0x0c, 0xbc, 0x48, 0xbe, 
  0xab, 0x24, 0x5d, 0xbb, 0x2a, 0xb9, 0x88, 0x3d, 0xc7, 0xb8, 0xeb, 0x3d, 
  0x1c, 0xec, 0x74, 0x3d, 0xf4, 0x08, 0x25, 0xbd, 0x63, 0x8b, 0x5b, 0x3d, 
  0xe2, 0xce, 0x32, 0xbe, 0x90, 0x29, 0x7a, 0xbe, 0xdb, 0xd0, 0x30, 0x3e, 
  0x9b, 0x6d, 0xd3, 0x3d, 0x45, 0xf9, 0x1c, 0x3e, 0xcf, 0x50, 0x88, 0x3c, 
  0x36, 0x25, 0x0d, 0x3e, 0xb8, 0x31, 0x18, 0x3e, 0x11, 0x28, 0x0c, 0x3e, 
  0x61, 0xc4, 0x7d, 0xbe, 0x04, 0xe1, 0x16, 0xbe, 0xc9, 0x07, 0x25, 0x3d, 
  0xcf, 0x14, 0x2e, 0x3e, 0x03, 0xf8, 0xf7, 0x3d, 0xdb, 0x53, 0x9a, 0xbb, 
  0x90, 0x5e, 0x54, 0x3d, 0x46, 0x72, 0x9c, 0xbd, 0xea, 0x08, 0x51, 0xbd, 
  0x71, 0xee, 0x8f, 0xbd, 0x55, 0x1d, 0x2f, 0xbe, 0x29, 0x1b, 0xac, 0x3d, 
  0x9b, 0x2d, 0x20, 0xbe, 0x83, 0xc2, 0x05, 0xbe, 0x22, 0xcf, 0x17, 0xbe, 
  0xee, 0xed, 0x01, 0xbd, 0xc8, 0x64, 0xf2, 0x3c, 0x90, 0x8b, 0x4c, 0xbe, 
  0x77, 0x21, 0x32, 0x3e, 0x71, 0x99, 0x31, 0xbe, 0x54, 0x02, 0xe2, 0x3d, 
  0x39, 0xd4, 0xba, 0xbd, 0xba, 0xd4, 0x8d, 0xbd, 0xee, 0xf5, 0xb6, 0xbc, 
  0xda, 0x31, 0x94, 0x3d, 0x88, 0xa2, 0x1d, 0xbe, 0xe7, 0x52, 0x64, 0xbe, 
  0xb6, 0x9b, 0x04, 0x3e, 0x3e, 0x79, 0x3a, 0xbe, 0xdb, 0x5d, 0x44, 0xbe, 
  0xa2, 0xb9, 0x72, 0xbd, 0x70, 0x66, 0xca, 0x3e, 0x46, 0xea, 0xc0, 0xbd, 
  0x08, 0x2b, 0xa8, 0x3d, 0x73, 0x55, 0xe8, 0xbd, 0xee, 0x30, 0xd4, 0xbd, 
  0xea, 0x99, 0x81, 0x3e, 0x66, 0x1f, 0xde, 0x3d, 0x26, 0x0c, 0x48, 0x3e, 
  0x0e, 0x7f, 0x81, 0xbe, 0xf9, 0x0d, 0x25, 0xbe, 0x00, 0xf2, 0x3a, 0x3e, 
  0x39, 0xd7, 0xc3, 0x3d, 0xe3, 0x33, 0x18, 0x3e, 0x2a, 0xd2, 0x52, 0x3d, 
  0x32, 0xc5, 0x15, 0x3e, 0x68, 0x20, 0xda, 0x3d, 0x99, 0x92, 0x16, 0xbe, 
  0xb2, 0x6b, 0xd0, 0x3d, 0x60, 0x6a, 0x6f, 0xbd, 0x91, 0x87, 0xe6, 0x3d, 
  0xf0, 0xad, 0x48, 0x3e, 0x45, 0x6e, 0x13, 0x3e, 0x71, 0xe9, 0x27, 0xbe, 
  0x70, 0x71, 0x7a, 0xbd, 0xb3, 0x09, 0x40, 0xbd, 0xac, 0xb5, 0x15, 0x3e, 
  0xb1, 0x98, 0xc3, 0x3c, 0xf2, 0xe2, 0xcf, 0xbd, 0x09, 0x25, 0x56, 0xbe, 
  0xfb, 0xf4, 0x84, 0x3e, 0x18, 0x27, 0xeb, 0xbb, 0xfe, 0xac, 0x10, 0x3e, 
  0x32, 0x88, 0x4d, 0x3e, 0x49, 0x40, 0xad, 0xbc, 0xb0, 0x71, 0x21, 0x3e, 
  0x6e, 0xdc, 0x2b, 0xbe, 0xf6, 0xfe, 0x5a, 0xbe, 0xcd, 0xcb, 0xa8, 0x3d, 
  0x55, 0x20, 0x3a, 0xbe, 0x8f, 0xdd, 0x21, 0xbe, 0x8b, 0x7d, 0x0e, 0xbd, 
  0x99, 0x9d, 0x4c, 0xbe, 0x43, 0xbe, 0x88, 0xbd, 0x35, 0x17, 0x56, 0x3d, 
  0x8a, 0xfa, 0x6b, 0x3d, 0x75, 0x43, 0x30, 0xbe, 0x8f, 0x3b, 0x4e, 0x3e, 
  0x3d, 0x5e, 0x00, 0xbe, 0x13, 0xc3, 0x13, 0x3e, 0x5e, 0x71, 0x30, 0xbd, 
  0x8a, 0x9a, 0x9e, 0xbd, 0x12, 0x87, 0x4e, 0xbe, 0x78, 0x71, 0x4e, 0x3e, 
  0x85, 0xfe, 0x4e, 0xbe, 0xf5, 0x09, 0x27, 0x3e, 0xeb, 0xdf, 0x93, 0xbd, 
  0xbd, 0xb1, 0x2a, 0x3e, 0xcc, 0x91, 0x09, 0xbe, 0x73, 0xd3, 0x93, 0xbd, 
  0xc3, 0x92, 0x26, 0x3d, 0x97, 0x55, 0x89, 0x3d, 0x7b, 0x24, 0x57, 0xbe, 
  0xf2, 0x05, 0xa8, 0xbc, 0x25, 0xfe, 0xd5, 0x3d, 0x0d, 0x8a, 0x50, 0x3e, 
  0xb8, 0x97, 0x38, 0xbe, 0x91, 0xbe, 0x06, 0x3e, 0xb2, 0xad, 0xce, 0x3c, 
  0xc9, 0xd7, 0xb5, 0xbd, 0x9c, 0xac, 0x9c, 0x3d, 0xf6, 0x38, 0x72, 0xbd, 
  0xbf, 0x53, 0x05, 0x3e, 0x09, 0x12, 0x1f, 0x3d, 0x7a, 0xe0, 0x26, 0xbe, 
  0x21, 0xc8, 0x30, 0x3e, 0xf3, 0x99, 0x07, 0xbe, 0x80, 0xc9, 0x31, 0xbe, 
  0x98, 0xfc, 0x0a, 0xbe, 0x4b, 0x79, 0x17, 0x3d, 0xea, 0x12, 0x32, 0x3e, 
  0x05, 0xe2, 0xeb, 0x3d, 0xf4, 0x55, 0x83, 0x3d, 0x15, 0x77, 0x29, 0x3d, 
  0x98, 0xdc, 0xc4, 0xbd, 0x9c, 0xe3, 0xf4, 0x3d, 0xbb, 0xee, 0x26, 0x3e, 
  0x19, 0x02, 0xbd, 0x3d, 0xff, 0x2f, 0xba, 0x3d, 0xb7, 0x7d, 0x44, 0x3d, 
  0x25, 0x58, 0xb0, 0x3d, 0xe9, 0x66, 0x00, 0x3c, 0x35, 0xa2, 0x65, 0xbc, 
  0x93, 0x8d, 0xd6, 0xbd, 0x79, 0x91, 0x72, 0xbe, 0xf0, 0x78, 0xb2, 0x3c, 
  0x07, 0x8f, 0x61, 0x3e, 0x76, 0x2a, 0x21, 0x3e, 0xb8, 0x6c, 0xba, 0x3d, 
  0x64, 0x6f, 0xa0, 0x3d, 0x1a, 0xc9, 0x96, 0x3d, 0x9d, 0x26, 0x05, 0x3e, 
  0xad, 0x64, 0x2c, 0xbe, 0x56, 0x39, 0x69, 0xbd, 0x25, 0x3b, 0x0e, 0xbe, 
  0x4a, 0xf5, 0x17, 0x3e, 0xbb, 0x4d, 0x84, 0x3e, 0xad, 0x9e, 0x05, 0x3e, 
  0x88, 0x7a, 0x19, 0x3e, 0xf4, 0x90, 0x14, 0xbe, 0x08, 0x3f, 0x2f, 0xbe, 
  0x42, 0x7e, 0xd2, 0x3c, 0xfa, 0xef, 0x20, 0x3e, 0xb7, 0x12, 0xda, 0xbd, 
  0x4c, 0xaa, 0x9c, 0xbd, 0x87, 0xb3, 0x1d, 0xbe, 0x02, 0xc7, 0x56, 0x3e, 
  0x83, 0x40, 0x02, 0x3e, 0xc1, 0x04, 0x45, 0x3e, 0x3f, 0xbc, 0x32, 0xbe, 
  0x2e, 0x1a, 0x21, 0xbe, 0x94, 0xb9, 0x9c, 0xbd, 0x17, 0xf7, 0x89, 0x3d, 
  0xb1, 0x06, 0x08, 0xbe, 0xda, 0x64, 0x04, 0x3e, 0x54, 0x17, 0xb7, 0xbd, 
  0x7d, 0x79, 0x8c, 0xbb, 0x34, 0xe9, 0x9e, 0x3c, 0xd2, 0xc7, 0x63, 0x3e, 
  0xc1, 0x2c, 0x44, 0x3e, 0xf7, 0xe9, 0xa1, 0x3d, 0xd4, 0x56, 0x15, 0x3e, 
  0x3d, 0x4e, 0x85, 0xbd, 0x4a, 0xe6, 0x63, 0xbe, 0x08, 0x6a, 0x05, 0x3d, 
  0xe1, 0x02, 0x0a, 0x3e, 0x56, 0x53, 0xdb, 0x3d, 0x63, 0x9c, 0xce, 0x3d, 
  0x84, 0x87, 0x90, 0xbd, 0xa5, 0xd8, 0x89, 0x3d, 0x7c, 0x4f, 0x25, 0xbd, 
  0xa4, 0xcb, 0x04, 0x3e, 0x9f, 0xfb, 0x71, 0xbe, 0xb2, 0xfa, 0x9f, 0xbd, 
  0x7f, 0xf3, 0x1e, 0xbe, 0x1b, 0xe7, 0xb5, 0xbd, 0x1d, 0x7f, 0xf9, 0xbb, 
  0x8c, 0xe1, 0xde, 0x3d, 0x6d, 0x2d, 0x95, 0x3d, 0xda, 0x97, 0x56, 0xbe, 
  0xdb, 0x05, 0xd9, 0xbd, 0x94, 0x0b, 0x14, 0x3d, 0x3e, 0x21, 0x14, 0xbd, 
  0xb3, 0xbb, 0x2d, 0x3d, 0xf8, 0xe5, 0x00, 0xbe, 0xe3, 0x59, 0x54, 0x3d, 
  0xae, 0x62, 0x95, 0x3c, 0x7b, 0x35, 0x05, 0x3e, 0x98, 0x98, 0x55, 0xbe, 
  0x5c, 0x12, 0x52, 0xbe, 0x49, 0xc5, 0x3f, 0x3e, 0xbb, 0xc4, 0x98, 0x3c, 
  0xf0, 0x99, 0x8b, 0xbd, 0x69, 0x59, 0x65, 0xbe, 0x3f, 0x5b, 0xe8, 0x3d, 
  0x10, 0x09, 0x07, 0xbc, 0x9e, 0x23, 0xe0, 0xbd, 0x19, 0x84, 0x34, 0x3e, 
  0xb5, 0xbf, 0xd6, 0x3c, 0xc7, 0x6e, 0xd5, 0x3d, 0xff, 0x4c, 0x3e, 0xbc, 
  0xde, 0x07, 0x81, 0xbe, 0x56, 0x1a, 0x31, 0xbe, 0x16, 0xec, 0x53, 0x3e, 
  0xf8, 0xc7, 0x45, 0x3e, 0x66, 0xff, 0x33, 0xbe, 0x7d, 0xe5, 0x05, 0xbe, 
  0x45, 0xeb, 0xb0, 0x3c, 0x5e, 0x9f, 0x63, 0xbd, 0x8e, 0x46, 0xed, 0xbd, 
  0xf1, 0x8c, 0xc1, 0x3d, 0xef, 0x52, 0x69, 0x3e, 0x7c, 0x86, 0x61, 0x3e, 
  0xd8, 0x29, 0x21, 0xbb, 0x44, 0x34, 0x1a, 0x3e, 0x13, 0x8f, 0x89, 0xbc, 
  0x4f, 0x49, 0x73, 0xbd, 0x61, 0x0b, 0x87, 0x3d, 0x89, 0xbf, 0xb3, 0x3b, 
  0xf8, 0x29, 0xe9, 0x3d, 0x38, 0xa3, 0x01, 0x3e, 0xb0, 0x54, 0x81, 0x3e, 
  0x9c, 0x6d, 0xfb, 0x3c, 0x3d, 0xb8, 0xb6, 0x3d, 0xbe, 0x02, 0xa9, 0xbd, 
  0xd0, 0x98, 0xde, 0x3d, 0x05, 0x61, 0xe1, 0xbc, 0x70, 0x47, 0xb7, 0x3d, 
  0xd7, 0x5f, 0xa4, 0xbd, 0xeb, 0x64, 0xff, 0x3d, 0x7b, 0x3f, 0x92, 0x3d, 
  0x1f, 0x94, 0x46, 0x3e, 0xd1, 0x50, 0x32, 0xbe, 0x93, 0x20, 0x58, 0xbd, 
  0x5f, 0x75, 0x4d, 0xbd, 0x14, 0xf5, 0x33, 0x3e, 0x66, 0x29, 0x95, 0xbe, 
  0x4c, 0xda, 0x56, 0xbe, 0xfb, 0x9a, 0x26, 0x3e, 0x6f, 0x63, 0x62, 0xbd, 
  0xf7, 0x9d, 0x34, 0x3d, 0x78, 0x4e, 0x13, 0xbd, 0x78, 0x39, 0x62, 0xbe, 
  0x4d, 0xe4, 0x34, 0x3d, 0x7b, 0xfe, 0x3c, 0x3e, 0xb4, 0x43, 0xe2, 0x3c, 
  0x69, 0xb6, 0x96, 0xbe, 0x9a, 0x8f, 0x75, 0x3c, 0x4a, 0xe4, 0xa2, 0xbd, 
  0x68, 0x85, 0x08, 0xbe, 0xa1, 0x4c, 0x3d, 0xbe, 0xa6, 0xf0, 0xcd, 0x3e, 
  0x30, 0x57, 0x4e, 0xbd, 0x74, 0xbd, 0x17, 0x3e, 0xbb, 0x22, 0xa3, 0x3d, 
  0x06, 0x09, 0x3d, 0xbd, 0xa0, 0x4e, 0x36, 0xbb, 0x94, 0x09, 0x31, 0xbe, 
  0x8a, 0x8a, 0xd9, 0x3d, 0xb2, 0x08, 0x2b, 0xbe, 0x44, 0xd2, 0x2e, 0xbd, 
  0x17, 0x3c, 0x93, 0x3e, 0x56, 0xc4, 0xc2, 0x3d, 0xf7, 0x71, 0xaa, 0xbd, 
  0x58, 0xdb, 0x64, 0x3d, 0xbe, 0x23, 0x19, 0xbe, 0xc6, 0x9c, 0x48, 0xbe, 
  0x9f, 0x78, 0xd6, 0x3d, 0x8f, 0xa4, 0x29, 0xbe, 0xc5, 0x5a, 0x5a, 0x3e, 
  0xc2, 0x2c, 0x63, 0x3d, 0x5a, 0xda, 0xd2, 0x3d, 0x2d, 0x4a, 0xca, 0x3d, 
  0x70, 0xef, 0x28, 0xbe, 0xef, 0x6d, 0x0d, 0x3e, 0x2f, 0xf3, 0xff, 0xba, 
  0xb3, 0x84, 0x01, 0x3a, 0xaa, 0xb6, 0x2e, 0x3e, 0x3d, 0x9c, 0x20, 0xbe, 
  0x61, 0x72, 0x80, 0xbe, 0x9a, 0x9b, 0x5c, 0x3e, 0xec, 0xe6, 0x93, 0xbd, 
  0x0e, 0x46, 0x92, 0x3d, 0x2f, 0xa0, 0xe9, 0x3d, 0x96, 0x93, 0xf1, 0xbc, 
  0xff, 0x2f, 0x9b, 0x3b, 0x7b, 0x9b, 0xae, 0x3d, 0x29, 0xdc, 0xa8, 0xbd, 
  0xb0, 0xfe, 0xa6, 0x3b, 0x53, 0x7b, 0xf7, 0x3d, 0xb3, 0xc0, 0x4d, 0xbd, 
  0xb3, 0x3b, 0x4b, 0x3e, 0x0b, 0x05, 0xad, 0xbc, 0x4e, 0xe3, 0x8c, 0xbd, 
  0xe0, 0x69, 0x53, 0xbd, 0x7c, 0x14, 0x3d, 0xbe, 0x9d, 0x0d, 0xfb, 0x3d, 
  0xaa, 0x54, 0xae, 0x3d, 0x21, 0xa5, 0x8f, 0x3a, 0x6d, 0x96, 0x28, 0xbe, 
  0xaf, 0x6f, 0x20, 0x3e, 0xcb, 0x3d, 0x20, 0xbc, 0x27, 0x68, 0x3d, 0xbe, 
  0x2e, 0x7c, 0x20, 0xbe, 0x57, 0x94, 0x8d, 0xbd, 0x51, 0xb2, 0x85, 0xbb, 
  0x71, 0x30, 0x4b, 0xbe, 0x78, 0x03, 0x38, 0xbe, 0xae, 0xb6, 0x82, 0xbd, 
  0x75, 0xf3, 0xcc, 0xbd, 0x36, 0xb0, 0xaf, 0x3c, 0xdd, 0xdf, 0x2a, 0x3e, 
  0x90, 0x5e, 0x2d, 0x3d, 0xdf, 0x7e, 0x10, 0x3e, 0x7c, 0x92, 0x9f, 0x3d, 
  0x12, 0xe7, 0xf9, 0x3a, 0x8f, 0x73, 0x51, 0xbe, 0x05, 0x6b, 0xab, 0x3d, 
  0x6a, 0x6d, 0x38, 0x3d, 0xaf, 0xb9, 0xe6, 0x3d, 0x6f, 0x3c, 0xd4, 0x3d, 
  0xf4, 0x09, 0x77, 0xbe, 0x17, 0xe4, 0x9f, 0xbd, 0xd5, 0x9e, 0xcb, 0x3b, 
  0xe2, 0x66, 0xc7, 0xbd, 0xcb, 0xe7, 0xcc, 0x3d, 0x92, 0x3d, 0x44, 0x3e, 
  0xf5, 0xc1, 0xce, 0x3d, 0x30, 0x24, 0xc8, 0xbd, 0xb3, 0x48, 0x36, 0x3d, 
  0x5a, 0x07, 0x1f, 0xbe, 0x2f, 0xc9, 0xb1, 0x3e, 0xaf, 0x1e, 0x39, 0xbd, 
  0xe6, 0x5b, 0x42, 0x3e, 0x3b, 0x68, 0xb4, 0x3d, 0x33, 0x31, 0x5d, 0xbe, 
  0xf5, 0x6b, 0x05, 0xbe, 0xd6, 0xcc, 0x38, 0x3e, 0x21, 0x04, 0x12, 0x3e, 
  0xc7, 0xe2, 0x45, 0xbe, 0xa6, 0xb7, 0xba, 0xbd, 0x2a, 0x0c, 0x0c, 0xbd, 
  0x63, 0xed, 0x93, 0x3d, 0xc1, 0x5d, 0x34, 0x3d, 0x89, 0x5b, 0xb9, 0x3c, 
  0x15, 0xa0, 0xc2, 0x3d, 0x91, 0x71, 0x8b, 0x3a, 0xa8, 0xbb, 0x6d, 0xbd, 
  0x96, 0xd7, 0xc6, 0xbd, 0x4d, 0x1c, 0xfb, 0xbd, 0xff, 0x35, 0x57, 0xbe, 
  0xa7, 0xdb, 0x86, 0x3e, 0xa0, 0xd4, 0x30, 0x3e, 0x93, 0x42, 0x64, 0xbe, 
  0xdf, 0xbd, 0x12, 0x3e, 0xab, 0x0c, 0x94, 0x3d, 0x80, 0xb8, 0x9a, 0xbd, 
  0x73, 0x50, 0x64, 0xbe, 0xc6, 0xda, 0x33, 0x3e, 0x81, 0x45, 0x33, 0x3e, 
  0xf4, 0xee, 0xd5, 0x3d, 0x58, 0xbd, 0xf0, 0xbc, 0x40, 0x88, 0x0f, 0x3e, 
  0xfd, 0x28, 0xb1, 0x3d, 0x4d, 0x89, 0x5c, 0xbe, 0xe8, 0xc6, 0x58, 0xbe, 
  0x08, 0x1d, 0x62, 0x3e, 0x56, 0x0e, 0x69, 0x3e, 0xb8, 0x04, 0x6d, 0xbe, 
  0xaf, 0xf8, 0x68, 0x3d, 0xc7, 0x00, 0xd5, 0xbd, 0x4e, 0xb4, 0x26, 0x3e, 
  0xc5, 0xd4, 0x33, 0xbe, 0xfa, 0xab, 0xc5, 0x3d, 0x2d, 0xc0, 0xeb, 0xbd, 
  0x08, 0x10, 0xe5, 0x3d, 0xf7, 0x7d, 0x08, 0x3e, 0xf1, 0x17, 0xe2, 0x3d, 
  0x73, 0x70, 0x53, 0xbe, 0xc4, 0xa9, 0xfd, 0xbd, 0xec, 0x00, 0xbc, 0xbd, 
  0xf1, 0x06, 0x6d, 0x3e, 0xa3, 0x2b, 0x41, 0x3c, 0x0b, 0xc8, 0x2b, 0xbe, 
  0xd1, 0xc0, 0x32, 0x3e, 0xde, 0xfe, 0x33, 0xbe, 0xd6, 0xef, 0x6e, 0x3e, 
  0x6e, 0x6c, 0x8a, 0xbd, 0x46, 0x49, 0xcc, 0xbc, 0xf6, 0xaa, 0x25, 0x3e, 
  0x6d, 0x57, 0x02, 0x3e, 0x3c, 0xfe, 0x7e, 0xbe, 0x03, 0xfe, 0x8e, 0xbd, 
  0x73, 0x4f, 0xc0, 0xbd, 0x90, 0x19, 0x5d, 0x3d, 0xef, 0x25, 0xd2, 0xbd, 
  0x75, 0xc7, 0x25, 0x3d, 0x1f, 0xb0, 0x2e, 0x3e, 0x14, 0x5a, 0xb0, 0x3d, 
  0x7e, 0x38, 0x29, 0xbc, 0x44, 0x7c, 0x80, 0xbe, 0x72, 0x6f, 0x20, 0xbd, 
  0x19, 0x25, 0x13, 0x3e, 0x3e, 0x5f, 0x19, 0x3e, 0xdb, 0xfd, 0x72, 0xbe, 
  0xdc, 0xe3, 0x04, 0x3d, 0x7d, 0x07, 0x0e, 0x3e, 0x10, 0xcf, 0x65, 0x3e, 
  0x57, 0x61, 0xe0, 0xbd, 0x01, 0x6a, 0x66, 0xbd, 0x91, 0xdb, 0x9d, 0xbd, 
  0xf8, 0x6a, 0x42, 0xbe, 0xa6, 0x7f, 0x43, 0x3e, 0x62, 0x2b, 0x66, 0xbe, 
  0x75, 0xf2, 0x66, 0xbd, 0x4b, 0x97, 0x30, 0x3e, 0x21, 0x60, 0xcf, 0x3b, 
  0xa8, 0xf2, 0x19, 0xbe, 0x94, 0x8c, 0x96, 0xbd, 0xb2, 0x04, 0x4b, 0x3e, 
  0xb9, 0xb3, 0x13, 0xbe, 0x7a, 0x4f, 0x3e, 0x3e, 0xbe, 0x9a, 0x02, 0x3e, 
  0x0f, 0xdc, 0x35, 0xbe, 0xce, 0x70, 0x1e, 0x3c, 0xfd, 0x83, 0x07, 0x3d, 
  0x79, 0x24, 0x37, 0xbe, 0x9a, 0x36, 0xd7, 0x3d, 0x28, 0x9f, 0x57, 0xbe, 
  0xa4, 0xd0, 0x6d, 0xbe, 0x89, 0xdc, 0x25, 0xbe, 0x0d, 0x63, 0x54, 0x3e, 
  0xa5, 0x1e, 0xb4, 0xbb, 0xe2, 0x03, 0xd7, 0xbd, 0x4e, 0xd1, 0x81, 0xbd, 
  0xbf, 0x0b, 0x32, 0x3e, 0x8e, 0x9d, 0xa8, 0xbd, 0x41, 0xab, 0xbc, 0xbd, 
  0x8b, 0x75, 0xc7, 0xbd, 0xc8, 0x64, 0x94, 0x3d, 0x95, 0x9d, 0x18, 0xbe, 
  0x4a, 0xda, 0x5e, 0x3e, 0x00, 0x00, 0x06, 0x00, 0x08, 0x00, 0x04, 0x00, 
  0x06, 0x00, 0x00, 0x00, 0x04, 0x00, 0x00, 0x00, 0x90, 0x01, 0x00, 0x00, 
  0x8c, 0x13, 0x91, 0x3d, 0x06, 0x24, 0x19, 0xbd, 0x69, 0x65, 0x0f, 0xbd, 
  0x63, 0xcd, 0x2e, 0xbd, 0x37, 0x5f, 0x92, 0x3e, 0x87, 0x4d, 0x34, 0xbd, 
  0xb7, 0x81, 0x36, 0x3e, 0x78, 0xfa, 0xb8, 0x3b, 0x7b, 0x6e, 0xa1, 0xbc, 
  0x61, 0x01, 0xe7, 0xbb, 0xae, 0xc2, 0x61, 0x3e, 0x5b, 0xff, 0x80, 0x3e, 
  0x4e, 0xf1, 0x5a, 0xbb, 0xeb, 0x1e, 0xa5, 0x3e, 0x52, 0xe6, 0x01, 0x3d, 
  0xff, 0xd9, 0x14, 0xbd, 0x9d, 0xc5, 0x1d, 0x3d, 0x5b, 0x1b, 0x9a, 0x3e, 
  0x14, 0xdc, 0x04, 0x3e, 0x44, 0x31, 0x4e, 0x3e, 0x5c, 0xaf, 0x86, 0x3c, 
  0x51, 0x74, 0x09, 0x3f, 0xee, 0x42, 0xf2, 0xbc, 0x90, 0xc6, 0x91, 0x3e, 
  0x51, 0x92, 0x63, 0x3d, 0xc0, 0xff, 0xa3, 0x3d, 0xd7, 0x6a, 0x46, 0xbd, 
  0x62, 0x6f, 0xc6, 0x3e, 0xff, 0xb1, 0x8c, 0x3e, 0xce, 0xef, 0xa1, 0xbc, 
  0xd9, 0xde, 0x4f, 0x3c, 0x88, 0x9f, 0xc1, 0x3c, 0xfd, 0xdb, 0xaa, 0x3c, 
  0x73, 0xf6, 0x2b, 0x3e, 0xeb, 0xf7, 0xa7, 0xb9, 0xb6, 0x1e, 0xd1, 0xbd, 
  0x94, 0x16, 0x5a, 0x3d, 0xa7, 0x0c, 0x03, 0x3e, 0xe9, 0x2c, 0x83, 0x3e, 
  0xdb, 0x3a, 0xca, 0x3d, 0x2c, 0x9b, 0xf1, 0xbc, 0x42, 0x81, 0xc5, 0x3e, 
  0xb0, 0xeb, 0x5b, 0x3e, 0xa7, 0x20, 0x1f, 0x3e, 0x4e, 0x30, 0xc6, 0x3d, 
  0xfe, 0xd1, 0xe3, 0x3e, 0x3c, 0x15, 0x2a, 0x3e, 0x08, 0x6a, 0x00, 0x3d, 
  0xf3, 0x83, 0xc3, 0x3e, 0xda, 0xec, 0xa3, 0x3e, 0x67, 0x1f, 0xda, 0xbd, 
  0x1b, 0x3c, 0xaf, 0x3c, 0x53, 0xcb, 0x50, 0x3e, 0xcb, 0xc9, 0x74, 0xba, 
  0x51, 0x50, 0x59, 0xbd, 0xf1, 0xc4, 0x78, 0x3e, 0x7f, 0xbf, 0x9e, 0x3d, 
  0x09, 0x02, 0x6d, 0x3e, 0xed, 0x4c, 0xa8, 0xbd, 0xdc, 0x8f, 0x8e, 0x3e, 
  0x50, 0xc3, 0x06, 0xbd, 0x72, 0x77, 0x93, 0x3e, 0x75, 0x5e, 0x78, 0x3c, 
  0x4d, 0xa5, 0x48, 0x3e, 0x45, 0x6c, 0xc2, 0xbd, 0x0e, 0x54, 0x36, 0x3c, 
  0xe4, 0x46, 0x2d, 0x3e, 0x4b, 0xe6, 0x76, 0x3d, 0xfc, 0x00, 0x17, 0x3f, 
  0x70, 0x0b, 0xba, 0xbc, 0x0f, 0x33, 0x3b, 0x3d, 0x5e, 0xed, 0xfd, 0xbc, 
  0x8d, 0x30, 0x09, 0x3d, 0x53, 0x65, 0xfa, 0x3e, 0x0a, 0xda, 0x02, 0x3d, 
  0x6b, 0x5a, 0x11, 0x3e, 0x7d, 0x23, 0xc5, 0x3e, 0x96, 0x2c, 0x12, 0x3f, 
  0x2c, 0xf4, 0xa7, 0x3d, 0xd6, 0x90, 0x9a, 0x3e, 0x30, 0xb8, 0x10, 0x3f, 
  0xec, 0x5d, 0x64, 0x3d, 0x0d, 0x64, 0x5c, 0x3e, 0x44, 0xf1, 0x01, 0x3f, 
  0x3d, 0x9a, 0x4b, 0x3d, 0xfc, 0x7a, 0x8b, 0x3e, 0xe4, 0xe2, 0x55, 0x3e, 
  0xc3, 0xa9, 0x62, 0x3e, 0xc8, 0x1f, 0x73, 0x3e, 0x9d, 0x04, 0x70, 0x3c, 
  0x31, 0xd4, 0x27, 0xbd, 0xeb, 0xd8, 0xb4, 0x3e, 0xb4, 0x60, 0x99, 0x3d, 
  0x2b, 0x88, 0x3b, 0x3d, 0xe4, 0x28, 0x4f, 0x3e, 0x55, 0x02, 0x03, 0x3e, 
  0x0f, 0x75, 0x37, 0x3e, 0x74, 0x43, 0x9f, 0x3d, 0x8c, 0x4a, 0x9e, 0xbc, 
  0x39, 0x48, 0xa6, 0xbd, 0x6c, 0xf6, 0xff, 0xff, 0x70, 0xf6, 0xff, 0xff, 
  0x0f, 0x00, 0x00, 0x00, 0x4d, 0x4c, 0x49, 0x52, 0x20, 0x43, 0x6f, 0x6e, 
  0x76, 0x65, 0x72, 0x74, 0x65, 0x64, 0x2e, 0x00, 0x01, 0x00, 0x00, 0x00, 
  0x14, 0x00, 0x00, 0x00, 0x00, 0x00, 0x0e, 0x00, 0x18, 0x00, 0x14, 0x00, 
  0x10, 0x00, 0x0c, 0x00, 0x08, 0x00, 0x04, 0x00, 0x0e, 0x00, 0x00, 0x00, 
  0x14, 0x00, 0x00, 0x00, 0x1c, 0x00, 0x00, 0x00, 0xf4, 0x00, 0x00, 0x00, 
  0xf8, 0x00, 0x00, 0x00, 0xfc, 0x00, 0x00, 0x00, 0x04, 0x00, 0x00, 0x00, 
  0x6d, 0x61, 0x69, 0x6e, 0x00, 0x00, 0x00, 0x00, 0x03, 0x00, 0x00, 0x00, 
  0x9c, 0x00, 0x00, 0x00, 0x48, 0x00, 0x00, 0x00, 0x04, 0x00, 0x00, 0x00, 
  0xce, 0xff, 0xff, 0xff, 0x10, 0x00, 0x00, 0x00, 0x00, 0x00, 0x00, 0x08, 
  0x0c, 0x00, 0x00, 0x00, 0x10, 0x00, 0x00, 0x00, 0xe8, 0xf6, 0xff, 0xff, 
  0x01, 0x00, 0x00, 0x00, 0x09, 0x00, 0x00, 0x00, 0x03, 0x00, 0x00, 0x00, 
  0x08, 0x00, 0x00, 0x00, 0x05, 0x00, 0x00, 0x00, 0x04, 0x00, 0x00, 0x00, 
  0x00, 0x00, 0x0e, 0x00, 0x14, 0x00, 0x00, 0x00, 0x10, 0x00, 0x0c, 0x00, 
  0x0b, 0x00, 0x04, 0x00, 0x0e, 0x00, 0x00, 0x00, 0x1c, 0x00, 0x00, 0x00, 
  0x00, 0x00, 0x00, 0x08, 0x1c, 0x00, 0x00, 0x00, 0x20, 0x00, 0x00, 0x00, 
  0x0c, 0x00, 0x08, 0x00, 0x07, 0x00, 0x00, 0x00, 0x00, 0x00, 0x06, 0x00, 
  0x0c, 0x00, 0x00, 0x00, 0x00, 0x00, 0x01, 0x01, 0x01, 0x00, 0x00, 0x00, 
  0x08, 0x00, 0x00, 0x00, 0x03, 0x00, 0x00, 0x00, 0x07, 0x00, 0x00, 0x00, 
  0x06, 0x00, 0x00, 0x00, 0x03, 0x00, 0x00, 0x00, 0x00, 0x00, 0x0e, 0x00, 
  0x16, 0x00, 0x00, 0x00, 0x10, 0x00, 0x0c, 0x00, 0x0b, 0x00, 0x04, 0x00, 
  0x0e, 0x00, 0x00, 0x00, 0x18, 0x00, 0x00, 0x00, 0x00, 0x00, 0x00, 0x08, 
  0x18, 0x00, 0x00, 0x00, 0x1c, 0x00, 0x00, 0x00, 0x00, 0x00, 0x06, 0x00, 
  0x08, 0x00, 0x07, 0x00, 0x06, 0x00, 0x00, 0x00, 0x00, 0x00, 0x00, 0x01, 
  0x01, 0x00, 0x00, 0x00, 0x07, 0x00, 0x00, 0x00, 0x03, 0x00, 0x00, 0x00, 
  0x00, 0x00, 0x00, 0x00, 0x02, 0x00, 0x00, 0x00, 0x01, 0x00, 0x00, 0x00, 
  0x01, 0x00, 0x00, 0x00, 0x09, 0x00, 0x00, 0x00, 0x01, 0x00, 0x00, 0x00, 
  0x00, 0x00, 0x00, 0x00, 0x0a, 0x00, 0x00, 0x00, 0x24, 0x08, 0x00, 0x00, 
  0xd0, 0x07, 0x00, 0x00, 0x78, 0x07, 0x00, 0x00, 0x3c, 0x07, 0x00, 0x00, 
  0x00, 0x07, 0x00, 0x00, 0xc0, 0x06, 0x00, 0x00, 0xa8, 0x01, 0x00, 0x00, 
  0xfc, 0x00, 0x00, 0x00, 0x60, 0x00, 0x00, 0x00, 0x04, 0x00, 0x00, 0x00, 
  0x1a, 0xf8, 0xff, 0xff, 0x00, 0x00, 0x00, 0x01, 0x14, 0x00, 0x00, 0x00, 
  0x1c, 0x00, 0x00, 0x00, 0x1c, 0x00, 0x00, 0x00, 0x0a, 0x00, 0x00, 0x00, 
  0x34, 0x00, 0x00, 0x00, 0x02, 0x00, 0x00, 0x00, 0xff, 0xff, 0xff, 0xff, 
  0x01, 0x00, 0x00, 0x00, 0x04, 0xf8, 0xff, 0xff, 0x1b, 0x00, 0x00, 0x00, 
  0x53, 0x74, 0x61, 0x74, 0x65, 0x66, 0x75, 0x6c, 0x50, 0x61, 0x72, 0x74, 
  0x69, 0x74, 0x69, 0x6f, 0x6e, 0x65, 0x64, 0x43, 0x61, 0x6c, 0x6c, 0x5f, 
  0x31, 0x3a, 0x30, 0x00, 0x02, 0x00, 0x00, 0x00, 0x01, 0x00, 0x00, 0x00, 
  0x01, 0x00, 0x00, 0x00, 0x72, 0xf8, 0xff, 0xff, 0x00, 0x00, 0x00, 0x01, 
  0x14, 0x00, 0x00, 0x00, 0x1c, 0x00, 0x00, 0x00, 0x1c, 0x00, 0x00, 0x00, 
  0x09, 0x00, 0x00, 0x00, 0x74, 0x00, 0x00, 0x00, 0x02, 0x00, 0x00, 0x00, 
  0xff, 0xff, 0xff, 0xff, 0x64, 0x00, 0x00, 0x00, 0x5c, 0xf8, 0xff, 0xff, 
  0x58, 0x00, 0x00, 0x00, 0x73, 0x65, 0x71, 0x75, 0x65, 0x6e, 0x74, 0x69, 
  0x61, 0x6c, 0x5f, 0x31, 0x2f, 0x64, 0x65, 0x6e, 0x73, 0x65, 0x5f, 0x31, 
  0x5f, 0x32, 0x2f, 0x4d, 0x61, 0x74, 0x4d, 0x75, 0x6c, 0x3b, 0x73, 0x65, 
  0x71, 0x75, 0x65, 0x6e, 0x74, 0x69, 0x61, 0x6c, 0x5f, 0x31, 0x2f, 0x64, 
  0x65, 0x6e, 0x73, 0x65, 0x5f, 0x31, 0x5f, 0x32, 0x2f, 0x52, 0x65, 0x6c, 
  0x75, 0x3b, 0x73, 0x65, 0x71, 0x75, 0x65, 0x6e, 0x74, 0x69, 0x61, 0x6c, 
  0x5f, 0x31, 0x2f, 0x64, 0x65, 0x6e, 0x73, 0x65, 0x5f, 0x31, 0x5f, 0x32, 
  0x2f, 0x42, 0x69, 0x61, 0x73, 0x41, 0x64, 0x64, 0x00, 0x00, 0x00, 0x00, 
  0x02, 0x00, 0x00, 0x00, 0x01, 0x00, 0x00, 0x00, 0x64, 0x00, 0x00, 0x00, 
  0x0a, 0xf9, 0xff, 0xff, 0x00, 0x00, 0x00, 0x01, 0x14, 0x00, 0x00, 0x00, 
  0x1c, 0x00, 0x00, 0x00, 0x1c, 0x00, 0x00, 0x00, 0x08, 0x00, 0x00, 0x00, 
  0x6c, 0x00, 0x00, 0x00, 0x02, 0x00, 0x00, 0x00, 0xff, 0xff, 0xff, 0xff, 
  0x64, 0x00, 0x00, 0x00, 0xf4, 0xf8, 0xff, 0xff, 0x52, 0x00, 0x00, 0x00, 
  0x73, 0x65, 0x71, 0x75, 0x65, 0x6e, 0x74, 0x69, 0x61, 0x6c, 0x5f, 0x31, 
  0x2f, 0x64, 0x65, 0x6e, 0x73, 0x65, 0x5f, 0x31, 0x2f, 0x4d, 0x61, 0x74, 
  0x4d, 0x75, 0x6c, 0x3b, 0x73, 0x65, 0x71, 0x75, 0x65, 0x6e, 0x74, 0x69, 
  0x61, 0x6c, 0x5f, 0x31, 0x2f, 0x64, 0x65, 0x6e, 0x73, 0x65, 0x5f, 0x31, 
  0x2f, 0x52, 0x65, 0x6c, 0x75, 0x3b, 0x73, 0x65, 0x71, 0x75, 0x65, 0x6e, 
  0x74, 0x69, 0x61, 0x6c, 0x5f, 0x31, 0x2f, 0x64, 0x65, 0x6e, 0x73, 0x65, 
  0x5f, 0x31, 0x2f, 0x42, 0x69, 0x61, 0x73, 0x41, 0x64, 0x64, 0x00, 0x00, 
  0x02, 0x00, 0x00, 0x00, 0x01, 0x00, 0x00, 0x00, 0x64, 0x00, 0x00, 0x00, 
  0x00, 0x00, 0x16, 0x00, 0x1c, 0x00, 0x18, 0x00, 0x17, 0x00, 0x10, 0x00, 
  0x0c, 0x00, 0x08, 0x00, 0x00, 0x00, 0x00, 0x00, 0x00, 0x00, 0x07, 0x00, 
  0x16, 0x00, 0x00, 0x00, 0x00, 0x00, 0x00, 0x01, 0x20, 0x00, 0x00, 0x00, 
  0xe4, 0x04, 0x00, 0x00, 0x07, 0x00, 0x00, 0x00, 0x00, 0x00, 0x00, 0x09, 
  0xf0, 0x04, 0x00, 0x00, 0x0c, 0x00, 0x0c, 0x00, 0x00, 0x00, 0x00, 0x00, 
  0x08, 0x00, 0x04, 0x00, 0x0c, 0x00, 0x00, 0x00, 0x08, 0x00, 0x00, 0x00, 
  0x2c, 0x03, 0x00, 0x00, 0x64, 0x00, 0x00, 0x00, 0x00, 0x00, 0x00, 0x00, 
  0x00, 0x00, 0x00, 0x00, 0x00, 0x00, 0x00, 0x00, 0x00, 0x00, 0x00, 0x00, 
  0x00, 0x00, 0x00, 0x00, 0x00, 0x00, 0x00, 0x00, 0x00, 0x00, 0x00, 0x00, 
  0x00, 0x00, 0x00, 0x00, 0x00, 0x00, 0x00, 0x00, 0x00, 0x00, 0x00, 0x00, 
  0x00, 0x00, 0x00, 0x00, 0x00, 0x00, 0x00, 0x00, 0x00, 0x00, 0x00, 0x00, 
  0x00, 0x00, 0x00, 0x00, 0x00, 0x00, 0x00, 0x00, 0x00, 0x00, 0x00, 0x00, 
  0x00, 0x00, 0x00, 0x00, 0x00, 0x00, 0x00, 0x00, 0x00, 0x00, 0x00, 0x00, 
  0x00, 0x00, 0x00, 0x00, 0x00, 0x00, 0x00, 0x00, 0x00, 0x00, 0x00, 0x00, 
  0x00, 0x00, 0x00, 0x00, 0x00, 0x00, 0x00, 0x00, 0x00, 0x00, 0x00, 0x00, 
  0x00, 0x00, 0x00, 0x00, 0x00, 0x00, 0x00, 0x00, 0x00, 0x00, 0x00, 0x00, 
  0x00, 0x00, 0x00, 0x00, 0x00, 0x00, 0x00, 0x00, 0x00, 0x00, 0x00, 0x00, 
  0x00, 0x00, 0x00, 0x00, 0x00, 0x00, 0x00, 0x00, 0x00, 0x00, 0x00, 0x00, 
  0x00, 0x00, 0x00, 0x00, 0x00, 0x00, 0x00, 0x00, 0x00, 0x00, 0x00, 0x00, 
  0x00, 0x00, 0x00, 0x00, 0x00, 0x00, 0x00, 0x00, 0x00, 0x00, 0x00, 0x00, 
  0x00, 0x00, 0x00, 0x00, 0x00, 0x00, 0x00, 0x00, 0x00, 0x00, 0x00, 0x00, 
  0x00, 0x00, 0x00, 0x00, 0x00, 0x00, 0x00, 0x00, 0x00, 0x00, 0x00, 0x00, 
  0x00, 0x00, 0x00, 0x00, 0x00, 0x00, 0x00, 0x00, 0x00, 0x00, 0x00, 0x00, 
  0x00, 0x00, 0x00, 0x00, 0x00, 0x00, 0x00, 0x00, 0x00, 0x00, 0x00, 0x00, 
  0x00, 0x00, 0x00, 0x00, 0x00, 0x00, 0x00, 0x00, 0x00, 0x00, 0x00, 0x00, 
  0x00, 0x00, 0x00, 0x00, 0x00, 0x00, 0x00, 0x00, 0x00, 0x00, 0x00, 0x00, 
  0x00, 0x00, 0x00, 0x00, 0x00, 0x00, 0x00, 0x00, 0x00, 0x00, 0x00, 0x00, 
  0x00, 0x00, 0x00, 0x00, 0x00, 0x00, 0x00, 0x00, 0x00, 0x00, 0x00, 0x00, 
  0x00, 0x00, 0x00, 0x00, 0x00, 0x00, 0x00, 0x00, 0x00, 0x00, 0x00, 0x00, 
  0x00, 0x00, 0x00, 0x00, 0x00, 0x00, 0x00, 0x00, 0x00, 0x00, 0x00, 0x00, 
  0x00, 0x00, 0x00, 0x00, 0x00, 0x00, 0x00, 0x00, 0x00, 0x00, 0x00, 0x00, 
  0x00, 0x00, 0x00, 0x00, 0x00, 0x00, 0x00, 0x00, 0x00, 0x00, 0x00, 0x00, 
  0x00, 0x00, 0x00, 0x00, 0x00, 0x00, 0x00, 0x00, 0x00, 0x00, 0x00, 0x00, 
  0x00, 0x00, 0x00, 0x00, 0x00, 0x00, 0x00, 0x00, 0x00, 0x00, 0x00, 0x00, 
  0x00, 0x00, 0x00, 0x00, 0x00, 0x00, 0x00, 0x00, 0x00, 0x00, 0x00, 0x00, 
  0x00, 0x00, 0x00, 0x00, 0x00, 0x00, 0x00, 0x00, 0x00, 0x00, 0x00, 0x00, 
  0x00, 0x00, 0x00, 0x00, 0x00, 0x00, 0x00, 0x00, 0x00, 0x00, 0x00, 0x00, 
  0x00, 0x00, 0x00, 0x00, 0x00, 0x00, 0x00, 0x00, 0x00, 0x00, 0x00, 0x00, 
  0x00, 0x00, 0x00, 0x00, 0x00, 0x00, 0x00, 0x00, 0x00, 0x00, 0x00, 0x00, 
  0x00, 0x00, 0x00, 0x00, 0x00, 0x00, 0x00, 0x00, 0x00, 0x00, 0x00, 0x00, 
  0x00, 0x00, 0x00, 0x00, 0x00, 0x00, 0x00, 0x00, 0x00, 0x00, 0x00, 0x00, 
  0x00, 0x00, 0x00, 0x00, 0x00, 0x00, 0x00, 0x00, 0x00, 0x00, 0x00, 0x00, 
  0x00, 0x00, 0x00, 0x00, 0x00, 0x00, 0x00, 0x00, 0x00, 0x00, 0x00, 0x00, 
  0x00, 0x00, 0x00, 0x00, 0x00, 0x00, 0x00, 0x00, 0x00, 0x00, 0x00, 0x00, 
  0x00, 0x00, 0x00, 0x00, 0x00, 0x00, 0x00, 0x00, 0x00, 0x00, 0x00, 0x00, 
  0x00, 0x00, 0x00, 0x00, 0x00, 0x00, 0x00, 0x00, 0x00, 0x00, 0x00, 0x00, 
  0x00, 0x00, 0x00, 0x00, 0x00, 0x00, 0x00, 0x00, 0x00, 0x00, 0x00, 0x00, 
  0x00, 0x00, 0x00, 0x00, 0x00, 0x00, 0x00, 0x00, 0x00, 0x00, 0x00, 0x00, 
  0x00, 0x00, 0x00, 0x00, 0x00, 0x00, 0x00, 0x00, 0x00, 0x00, 0x00, 0x00, 
  0x00, 0x00, 0x00, 0x00, 0x00, 0x00, 0x00, 0x00, 0x00, 0x00, 0x00, 0x00, 
  0x00, 0x00, 0x00, 0x00, 0x00, 0x00, 0x00, 0x00, 0x00, 0x00, 0x00, 0x00, 
  0x00, 0x00, 0x00, 0x00, 0x00, 0x00, 0x00, 0x00, 0x00, 0x00, 0x00, 0x00, 
  0x00, 0x00, 0x00, 0x00, 0x00, 0x00, 0x00, 0x00, 0x00, 0x00, 0x00, 0x00, 
  0x00, 0x00, 0x00, 0x00, 0x00, 0x00, 0x00, 0x00, 0x00, 0x00, 0x00, 0x00, 
  0x00, 0x00, 0x00, 0x00, 0x00, 0x00, 0x00, 0x00, 0x00, 0x00, 0x00, 0x00, 
  0x00, 0x00, 0x00, 0x00, 0x00, 0x00, 0x00, 0x00, 0x00, 0x00, 0x00, 0x00, 
  0x00, 0x00, 0x00, 0x00, 0x00, 0x00, 0x00, 0x00, 0x00, 0x00, 0x00, 0x00, 
  0x00, 0x00, 0x00, 0x00, 0x00, 0x00, 0x00, 0x00, 0x00, 0x00, 0x00, 0x00, 
  0x00, 0x00, 0x00, 0x00, 0x00, 0x00, 0x00, 0x00, 0x00, 0x00, 0x00, 0x00, 
  0x00, 0x00, 0x00, 0x00, 0x00, 0x00, 0x00, 0x00, 0x00, 0x00, 0x00, 0x00, 
  0x00, 0x00, 0x00, 0x00, 0x00, 0x00, 0x00, 0x00, 0x00, 0x00, 0x00, 0x00, 
  0x00, 0x00, 0x00, 0x00, 0x00, 0x00, 0x00, 0x00, 0x00, 0x00, 0x00, 0x00, 
  0x00, 0x00, 0x00, 0x00, 0x00, 0x00, 0x00, 0x00, 0x00, 0x00, 0x00, 0x00, 
  0x00, 0x00, 0x00, 0x00, 0x00, 0x00, 0x00, 0x00, 0x00, 0x00, 0x00, 0x00, 
  0x00, 0x00, 0x00, 0x00, 0x00, 0x00, 0x00, 0x00, 0x00, 0x00, 0x00, 0x00, 
  0x00, 0x00, 0x00, 0x00, 0x00, 0x00, 0x00, 0x00, 0x00, 0x00, 0x00, 0x00, 
  0x00, 0x00, 0x00, 0x00, 0x00, 0x00, 0x00, 0x00, 0x00, 0x00, 0x00, 0x00, 
  0x00, 0x00, 0x00, 0x00, 0x00, 0x00, 0x00, 0x00, 0x00, 0x00, 0x00, 0x00, 
  0x00, 0x00, 0x00, 0x00, 0x00, 0x00, 0x00, 0x00, 0x00, 0x00, 0x00, 0x00, 
  0x00, 0x00, 0x00, 0x00, 0x00, 0x00, 0x00, 0x00, 0x00, 0x00, 0x00, 0x00, 
  0x00, 0x00, 0x00, 0x00, 0x00, 0x00, 0x00, 0x00, 0x00, 0x00, 0x00, 0x00, 
  0x00, 0x00, 0x00, 0x00, 0x00, 0x00, 0x00, 0x00, 0x00, 0x00, 0x00, 0x00, 
  0x00, 0x00, 0x00, 0x00, 0x00, 0x00, 0x00, 0x00, 0x00, 0x00, 0x00, 0x00, 
  0x00, 0x00, 0x00, 0x00, 0x00, 0x00, 0x00, 0x00, 0x64, 0x00, 0x00, 0x00, 
  0x89, 0xac, 0xc2, 0x3a, 0x23, 0xd2, 0xbe, 0x3a, 0x26, 0x2c, 0xb2, 0x3a, 
  0x3e, 0x12, 0xb0, 0x3a, 0x71, 0x81, 0xb1, 0x3a, 0xba, 0x68, 0xb0, 0x3a, 
  0xb6, 0x37, 0xb3, 0x3a, 0x30, 0x4a, 0xb1, 0x3a, 0x45, 0xd2, 0xb1, 0x3a, 
  0xb8, 0xae, 0xb3, 0x3a, 0xfb, 0x06, 0xb1, 0x3a, 0xc2, 0xf4, 0xb1, 0x3a, 
  0x13, 0x96, 0xc0, 0x3a, 0x5a, 0xc2, 0xb2, 0x3a, 0xb5, 0x5d, 0xb2, 0x3a, 
  0xc8, 0x83, 0xac, 0x3a, 0x3b, 0xdf, 0xb2, 0x3a, 0x00, 0x65, 0xc2, 0x3a, 
  0x3e, 0xf6, 0xe8, 0x3a, 0x3c, 0x9c, 0xe4, 0x3a, 0x58, 0xad, 0xb2, 0x3a, 
  0x07, 0x4d, 0xc5, 0x3a, 0x93, 0xa9, 0xb2, 0x3a, 0xab, 0xa3, 0xae, 0x3a, 
  0xd9, 0xe7, 0xb3, 0x3a, 0x23, 0xbd, 0xb0, 0x3a, 0xcc, 0x08, 0xb2, 0x3a, 
  0x1f, 0x55, 0xae, 0x3a, 0x75, 0x37, 0xaf, 0x3a, 0xc1, 0x47, 0xf6, 0x3a, 
  0x66, 0x06, 0xf0, 0x3a, 0xe7, 0xd7, 0xce, 0x3a, 0xba, 0x80, 0x0e, 0x3b, 
  0xea, 0xaf, 0xb1, 0x3a, 0x75, 0xf9, 0xae, 0x3a, 0x27, 0x6c, 0xb3, 0x3a, 
  0xb3, 0x21, 0xec, 0x3a, 0xf7, 0xcd, 0xd2, 0x3a, 0x8e, 0xc7, 0xb4, 0x3a, 
  0x73, 0xe8, 0xc4, 0x3a, 0x37, 0x19, 0xb3, 0x3a, 0xaf, 0x61, 0xb2, 0x3a, 
  0x4b, 0x61, 0xb3, 0x3a, 0xd8, 0x79, 0xbc, 0x3a, 0xcd, 0xe0, 0xfc, 0x3a, 
  0x54, 0x17, 0xb2, 0x3a, 0x7a, 0x45, 0xba, 0x3a, 0xcc, 0xa3, 0xb2, 0x3a, 
  0xa5, 0x85, 0xb2, 0x3a, 0xc6, 0xbd, 0xb0, 0x3a, 0x53, 0x31, 0xb1, 0x3a, 
  0xae, 0x74, 0xd4, 0x3a, 0xf9, 0xa9, 0xb0, 0x3a, 0x7e, 0x6d, 0xb4, 0x3a, 
  0x17, 0x7f, 0xb4, 0x3a, 0xe8, 0xa6, 0xb1, 0x3a, 0x30, 0x52, 0xb4, 0x3a, 
  0x7a, 0x96, 0xb2, 0x3a, 0xdc, 0x1a, 0xb3, 0x3a, 0x54, 0x7b, 0xb1, 0x3a, 
  0x60, 0x16, 0xb2, 0x3a, 0x1d, 0x9e, 0xaf, 0x3a, 0xd3, 0x06, 0xb1, 0x3a, 
  0xdd, 0x16, 0xb0, 0x3a, 0xca, 0x4c, 0xb3, 0x3a, 0x4d, 0x44, 0xb8, 0x3a, 
  0xf1, 0x80, 0x00, 0x3b, 0xbb, 0xdb, 0xb2, 0x3a, 0x9f, 0x01, 0x22, 0x3b, 
  0x74, 0xc2, 0xb3, 0x3a, 0xb3, 0x9f, 0xb1, 0x3a, 0x41, 0xd5, 0xc3, 0x3a, 
  0x00, 0xb0, 0xb2, 0x3a, 0x64, 0xfd, 0xc2, 0x3a, 0x9d, 0x45, 0xb6, 0x3a, 
  0x6c, 0xca, 0xb3, 0x3a, 0x08, 0xbf, 0xb0, 0x3a, 0xc8, 0x9d, 0x1a, 0x3b, 
  0x35, 0xe8, 0xad, 0x3a, 0xa0, 0x7b, 0xb3, 0x3a, 0x1e, 0xcc, 0xc5, 0x3a, 
  0x59, 0xbe, 0xb2, 0x3a, 0x48, 0xe3, 0xbe, 0x3a, 0x21, 0x7f, 0xb9, 0x3a, 
  0x0c, 0x23, 0xb0, 0x3a, 0x68, 0x35, 0xbb, 0x3a, 0x32, 0xc8, 0xb1, 0x3a, 
  0x29, 0x68, 0xaf, 0x3a, 0x96, 0x6b, 0xdb, 0x3a, 0x2c, 0x78, 0xcc, 0x3a, 
  0x58, 0x85, 0xd6, 0x3a, 0xb3, 0x10, 0xd3, 0x3a, 0xf4, 0xd4, 0xf5, 0x3a, 
  0x33, 0x52, 0xec, 0x3a, 0x1f, 0x1c, 0xb5, 0x3a, 0xc3, 0xda, 0xb6, 0x3a, 
  0x1c, 0xbb, 0xb6, 0x3a, 0x30, 0x79, 0xbf, 0x3a, 0xba, 0xfe, 0xb5, 0x3a, 
  0x4a, 0x1d, 0xc1, 0x3a, 0x11, 0x00, 0x00, 0x00, 0x74, 0x66, 0x6c, 0x2e, 
  0x70, 0x73, 0x65, 0x75, 0x64, 0x6f, 0x5f, 0x71, 0x63, 0x6f, 0x6e, 0x73, 
  0x74, 0x00, 0x00, 0x00, 0x02, 0x00, 0x00, 0x00, 0x64, 0x00, 0x00, 0x00, 
  0x64, 0x00, 0x00, 0x00, 0x16, 0xff, 0xff, 0xff, 0x00, 0x00, 0x00, 0x01, 
  0x10, 0x00, 0x00, 0x00, 0x10, 0x00, 0x00, 0x00, 0x06, 0x00, 0x00, 0x00, 
  0x1c, 0x00, 0x00, 0x00, 0xa0, 0xfe, 0xff, 0xff, 0x0f, 0x00, 0x00, 0x00, 
  0x61, 0x72, 0x69, 0x74, 0x68, 0x2e, 0x63, 0x6f, 0x6e, 0x73, 0x74, 0x61, 
  0x6e, 0x74, 0x34, 0x00, 0x02, 0x00, 0x00, 0x00, 0x01, 0x00, 0x00, 0x00, 
  0x64, 0x00, 0x00, 0x00, 0x52, 0xff, 0xff, 0xff, 0x00, 0x00, 0x00, 0x01, 
  0x10, 0x00, 0x00, 0x00, 0x10, 0x00, 0x00, 0x00, 0x05, 0x00, 0x00, 0x00, 
  0x1c, 0x00, 0x00, 0x00, 0xdc, 0xfe, 0xff, 0xff, 0x0f, 0x00, 0x00, 0x00, 
  0x61, 0x72, 0x69, 0x74, 0x68, 0x2e, 0x63, 0x6f, 0x6e, 0x73, 0x74, 0x61, 
  0x6e, 0x74, 0x33, 0x00, 0x01, 0x00, 0x00, 0x00, 0x01, 0x00, 0x00, 0x00, 
  0x8a, 0xff, 0xff, 0xff, 0x00, 0x00, 0x00, 0x01, 0x10, 0x00, 0x00, 0x00, 
  0x10, 0x00, 0x00, 0x00, 0x04, 0x00, 0x00, 0x00, 0x1c, 0x00, 0x00, 0x00, 
