#pragma once
#include <cstdint>

alignas(16) const unsigned char g_model[] = {
  0x20, 0x00, 0x00, 0x00, 0x54, 0x46, 0x4c, 0x33, 0x00, 0x00, 0x00, 0x00, 
  0x14, 0x00, 0x20, 0x00, 0x1c, 0x00, 0x18, 0x00, 0x14, 0x00, 0x10, 0x00, 
  0x0c, 0x00, 0x00, 0x00, 0x08, 0x00, 0x04, 0x00, 0x14, 0x00, 0x00, 0x00, 
  0x1c, 0x00, 0x00, 0x00, 0x98, 0x00, 0x00, 0x00, 0x18, 0x01, 0x00, 0x00, 
  0x3c, 0x12, 0x00, 0x00, 0x4c, 0x12, 0x00, 0x00, 0x2c, 0x21, 0x00, 0x00, 
  0x03, 0x00, 0x00, 0x00, 0x01, 0x00, 0x00, 0x00, 0x10, 0x00, 0x00, 0x00, 
  0x00, 0x00, 0x0a, 0x00, 0x10, 0x00, 0x0c, 0x00, 0x08, 0x00, 0x04, 0x00, 
  0x0a, 0x00, 0x00, 0x00, 0x0c, 0x00, 0x00, 0x00, 0x1c, 0x00, 0x00, 0x00, 
  0x3c, 0x00, 0x00, 0x00, 0x0f, 0x00, 0x00, 0x00, 0x73, 0x65, 0x72, 0x76, 
  0x69, 0x6e, 0x67, 0x5f, 0x64, 0x65, 0x66, 0x61, 0x75, 0x6c, 0x74, 0x00, 
  0x01, 0x00, 0x00, 0x00, 0x04, 0x00, 0x00, 0x00, 0x68, 0xff, 0xff, 0xff, 
  0x09, 0x00, 0x00, 0x00, 0x04, 0x00, 0x00, 0x00, 0x08, 0x00, 0x00, 0x00, 
  0x6f, 0x75, 0x74, 0x70, 0x75, 0x74, 0x5f, 0x30, 0x00, 0x00, 0x00, 0x00, 
  0x01, 0x00, 0x00, 0x00, 0x04, 0x00, 0x00, 0x00, 0x56, 0xee, 0xff, 0xff, 
  0x04, 0x00, 0x00, 0x00, 0x0c, 0x00, 0x00, 0x00, 0x6b, 0x65, 0x72, 0x61, 
  0x73, 0x5f, 0x74, 0x65, 0x6e, 0x73, 0x6f, 0x72, 0x00, 0x00, 0x00, 0x00, 
  0x03, 0x00, 0x00, 0x00, 0x5c, 0x00, 0x00, 0x00, 0x2c, 0x00, 0x00, 0x00, 
  0x04, 0x00, 0x00, 0x00, 0xb8, 0xff, 0xff, 0xff, 0x0d, 0x00, 0x00, 0x00, 
  0x04, 0x00, 0x00, 0x00, 0x13, 0x00, 0x00, 0x00, 0x43, 0x4f, 0x4e, 0x56, 
  0x45, 0x52, 0x53, 0x49, 0x4f, 0x4e, 0x5f, 0x4d, 0x45, 0x54, 0x41, 0x44, 
  0x41, 0x54, 0x41, 0x00, 0xdc, 0xff, 0xff, 0xff, 0x0c, 0x00, 0x00, 0x00, 
  0x04, 0x00, 0x00, 0x00, 0x13, 0x00, 0x00, 0x00, 0x6d, 0x69, 0x6e, 0x5f, 
  0x72, 0x75, 0x6e, 0x74, 0x69, 0x6d, 0x65, 0x5f, 0x76, 0x65, 0x72, 0x73, 
  0x69, 0x6f, 0x6e, 0x00, 0x08, 0x00, 0x0c, 0x00, 0x08, 0x00, 0x04, 0x00, 
  0x08, 0x00, 0x00, 0x00, 0x0b, 0x00, 0x00, 0x00, 0x04, 0x00, 0x00, 0x00, 
  0x13, 0x00, 0x00, 0x00, 0x6d, 0x69, 0x6e, 0x5f, 0x72, 0x75, 0x6e, 0x74, 
  0x69, 0x6d, 0x65, 0x5f, 0x76, 0x65, 0x72, 0x73, 0x69, 0x6f, 0x6e, 0x00, 
  0x0e, 0x00, 0x00, 0x00, 0x20, 0x11, 0x00, 0x00, 0x18, 0x11, 0x00, 0x00, 
  0x04, 0x11, 0x00, 0x00, 0xcc, 0x10, 0x00, 0x00, 0x3c, 0x10, 0x00, 0x00, 
  0x2c, 0x08, 0x00, 0x00, 0x1c, 0x07, 0x00, 0x00, 0xcc, 0x00, 0x00, 0x00, 
  0xc4, 0x00, 0x00, 0x00, 0xbc, 0x00, 0x00, 0x00, 0xb4, 0x00, 0x00, 0x00, 
  0x94, 0x00, 0x00, 0x00, 0x74, 0x00, 0x00, 0x00, 0x04, 0x00, 0x00, 0x00, 
  0x32, 0xef, 0xff, 0xff, 0x04, 0x00, 0x00, 0x00, 0x60, 0x00, 0x00, 0x00, 
  0x0c, 0x00, 0x00, 0x00, 0x08, 0x00, 0x0e, 0x00, 0x08, 0x00, 0x04, 0x00, 
  0x08, 0x00, 0x00, 0x00, 0x10, 0x00, 0x00, 0x00, 0x28, 0x00, 0x00, 0x00, 
  0x00, 0x00, 0x06, 0x00, 0x08, 0x00, 0x04, 0x00, 0x06, 0x00, 0x00, 0x00, 
  0x04, 0x00, 0x00, 0x00, 0x01, 0x00, 0x00, 0x00, 0xeb, 0x03, 0x00, 0x00, 
  0x0c, 0x00, 0x18, 0x00, 0x14, 0x00, 0x10, 0x00, 0x0c, 0x00, 0x04, 0x00, 
  0x0c, 0x00, 0x00, 0x00, 0xca, 0x78, 0xa2, 0x23, 0x07, 0x14, 0x1a, 0xed, 
  0x02, 0x00, 0x00, 0x00, 0x02, 0x00, 0x00, 0x00, 0x04, 0x00, 0x00, 0x00, 
  0x06, 0x00, 0x00, 0x00, 0x32, 0x2e, 0x31, 0x39, 0x2e, 0x30, 0x00, 0x00, 
  0x9e, 0xef, 0xff, 0xff, 0x04, 0x00, 0x00, 0x00, 0x10, 0x00, 0x00, 0x00, 
  0x00, 0x00, 0x00, 0x00, 0x00, 0x00, 0x00, 0x00, 0x00, 0x00, 0x00, 0x00, 
  0x00, 0x00, 0x00, 0x00, 0xba, 0xef, 0xff, 0xff, 0x04, 0x00, 0x00, 0x00, 
  0x10, 0x00, 0x00, 0x00, 0x31, 0x2e, 0x31, 0x34, 0x2e, 0x30, 0x00, 0x00, 
  0x00, 0x00, 0x00, 0x00, 0x00, 0x00, 0x00, 0x00, 0x44, 0xef, 0xff, 0xff, 
  0x48, 0xef, 0xff, 0xff, 0x4c, 0xef, 0xff, 0xff, 0xe2, 0xef, 0xff, 0xff, 
  0x04, 0x00, 0x00, 0x00, 0x40, 0x06, 0x00, 0x00, 0xee, 0x23, 0xd3, 0xe6, 
  0xeb, 0xcf, 0xb9, 0xd1, 0xbb, 0xfe, 0x5f, 0xdd, 0xd8, 0x41, 0x5f, 0xb7, 
  0xbf, 0x4a, 0x81, 0x0a, 0x21, 0x44, 0x8d, 0x3b, 0x3b, 0x79, 0x54, 0xf6, 
  0x57, 0x40, 0xdd, 0x49, 0x8d, 0x27, 0x69, 0xbe, 0x33, 0xad, 0x72, 0xc9, 
  0x50, 0x81, 0xd8, 0x0e, 0xf9, 0x8f, 0xa6, 0x4d, 0xe9, 0xec, 0xc3, 0xf4, 
  0x63, 0x0d, 0xab, 0xaa, 0xaf, 0x5c, 0x09, 0xc6, 0x64, 0x96, 0x7f, 0x97, 
  0x96, 0x28, 0x57, 0xfe, 0xa3, 0xba, 0x7b, 0x99, 0xaa, 0xb7, 0x30, 0x7a, 
  0xaa, 0x7f, 0x75, 0xd4, 0x4b, 0x28, 0x7b, 0x1e, 0x2b, 0x6c, 0x1b, 0xdf, 
  0x28, 0x5d, 0x49, 0xe4, 0x0c, 0x6f, 0xde, 0x88, 0xc4, 0x87, 0x82, 0xf2, 
  0x58, 0xea, 0xc2, 0x70, 0xf2, 0x09, 0x59, 0xf8, 0xc1, 0x81, 0x93, 0x92, 
  0xc3, 0xd8, 0x20, 0xf0, 0xf0, 0xfc, 0xe4, 0xa8, 0x2e, 0x00, 0xe8, 0x2d, 
  0x0d, 0x98, 0x02, 0x79, 0xd3, 0xab, 0x0f, 0x95, 0x50, 0x37, 0x0c, 0xe1, 
  0xf3, 0x08, 0xe8, 0x5c, 0xd0, 0x6c, 0x7f, 0x9b, 0x42, 0x66, 0xd8, 0x41, 
  0x57, 0xb0, 0xa7, 0xbf, 0x5c, 0xc8, 0x40, 0x2c, 0x8b, 0x7b, 0x61, 0xc1, 
  0xde, 0x3a, 0x40, 0x0f, 0x67, 0xa2, 0x5d, 0x39, 0xee, 0x05, 0xe0, 0xbd, 
  0x7f, 0x8a, 0xc8, 0x46, 0x46, 0xba, 0x48, 0xbf, 0xd0, 0xb8, 0xd3, 0x5d, 
  0x97, 0x72, 0xa9, 0x21, 0xbb, 0x04, 0x7f, 0x83, 0xf2, 0x74, 0x8b, 0x73, 
  0xb4, 0x3d, 0x21, 0xbc, 0x23, 0xb5, 0x32, 0x66, 0xd6, 0x81, 0xc8, 0x40, 
  0xa4, 0x7c, 0x31, 0x30, 0x04, 0xfb, 0x33, 0x78, 0xe3, 0x41, 0x03, 0xaf, 
  0x81, 0xd2, 0xce, 0xd8, 0xa8, 0x19, 0x59, 0x96, 0x26, 0x27, 0x97, 0x6d, 
  0xb3, 0xfc, 0xda, 0x8e, 0xc4, 0xf4, 0x8b, 0x2d, 0x50, 0x3c, 0x57, 0x38, 
  0x24, 0xbc, 0x81, 0xd9, 0x2c, 0xec, 0xd4, 0x12, 0x25, 0xa3, 0xbe, 0x58, 
  0x52, 0xb9, 0x41, 0x69, 0xf3, 0x87, 0x9a, 0x23, 0x90, 0x27, 0xd7, 0xb9, 
  0xe8, 0x81, 0x0c, 0x86, 0x54, 0x25, 0xd6, 0x9c, 0xe1, 0x43, 0x29, 0xe6, 
  0x9e, 0xf4, 0x81, 0xfc, 0x06, 0xe7, 0xa9, 0x3d, 0x44, 0x10, 0xcc, 0xcb, 
  0x84, 0x44, 0xcd, 0x32, 0x9d, 0x6e, 0x63, 0xf8, 0x6b, 0x95, 0x4b, 0xc8, 
  0x4c, 0x9a, 0x00, 0x7f, 0xce, 0xea, 0xf1, 0x34, 0x1b, 0x51, 0x5a, 0xfb, 
  0xd8, 0xfd, 0x4d, 0xff, 0x78, 0x98, 0x67, 0xd2, 0x57, 0xb5, 0x32, 0xb6, 
  0x6c, 0x1a, 0x2d, 0x01, 0x8c, 0xec, 0xd2, 0x70, 0x25, 0xfd, 0x13, 0x5f, 
  0xd7, 0x8f, 0xa0, 0x81, 0x2a, 0x06, 0x1e, 0x4e, 0xe1, 0x61, 0x53, 0x04, 
  0xb9, 0xc4, 0x89, 0x7f, 0xff, 0x8b, 0xb7, 0x18, 0xbd, 0xca, 0xd9, 0xba, 
  0x44, 0x37, 0xff, 0x2c, 0xf2, 0x64, 0xe7, 0x4d, 0xad, 0x8c, 0x26, 0xfc, 
  0xd0, 0xfb, 0x81, 0x81, 0xc9, 0x91, 0xf6, 0x33, 0xd6, 0xc4, 0x2e, 0x88, 
  0x94, 0xeb, 0x94, 0x9a, 0x4d, 0x88, 0x48, 0x2b, 0x41, 0x64, 0x83, 0xe3, 
  0x67, 0xdb, 0x9d, 0x3b, 0x7f, 0x47, 0xca, 0xa4, 0x6e, 0xa3, 0xf6, 0x5f, 
  0xa2, 0x01, 0xa1, 0x95, 0x85, 0xed, 0xef, 0xba, 0x0e, 0xf3, 0x9b, 0x41, 
  0x5b, 0x6e, 0xb4, 0x09, 0x9a, 0xf5, 0xbc, 0x9a, 0xaa, 0xbe, 0xc5, 0xa3, 
  0x26, 0x68, 0x2d, 0xe5, 0x26, 0xff, 0x5c, 0x81, 0x3c, 0x6f, 0x11, 0x86, 
  0xef, 0x04, 0x39, 0x97, 0xb2, 0x5a, 0x81, 0xe5, 0x04, 0x71, 0xca, 0xd2, 
  0xaa, 0x23, 0xb4, 0x5e, 0x16, 0x30, 0xfe, 0x3c, 0xef, 0x92, 0x2d, 0xf6, 
  0x87, 0xe0, 0x8d, 0x8b, 0xb2, 0x34, 0x51, 0xd1, 0x86, 0xc9, 0x45, 0x6a, 
  0xdb, 0x38, 0x2c, 0x29, 0x42, 0xfc, 0x4a, 0x81, 0x69, 0x73, 0xeb, 0xdd, 
  0xb0, 0x32, 0xee, 0x46, 0x37, 0x2a, 0x3d, 0xcd, 0xed, 0x08, 0x8a, 0x81, 
  0x8d, 0xc4, 0xf8, 0xc8, 0xc0, 0xcb, 0x8d, 0x9a, 0x25, 0x48, 0x99, 0x59, 
  0xc4, 0x0c, 0x8a, 0xae, 0xce, 0xdb, 0x50, 0x97, 0xd2, 0xcc, 0x9e, 0x7d, 
  0xb3, 0xa2, 0x11, 0xd6, 0x19, 0xb5, 0xfe, 0xf9, 0xfa, 0x7f, 0xb0, 0x4f, 
  0x9e, 0x5c, 0x0c, 0x63, 0x9e, 0xe4, 0x8c, 0xe2, 0xd7, 0x6a, 0x67, 0x08, 
  0xfa, 0xb3, 0x06, 0x78, 0xe1, 0x28, 0xf1, 0xa5, 0x7f, 0x5a, 0x46, 0x44, 
  0x29, 0xf8, 0xba, 0xd5, 0x22, 0xec, 0x95, 0xef, 0xe8, 0xda, 0x8b, 0xb2, 
  0xa8, 0x32, 0x7e, 0xd1, 0x2f, 0x05, 0xeb, 0x1a, 0xa5, 0x81, 0x1c, 0xb1, 
  0xfe, 0xe7, 0x9a, 0x1d, 0xc7, 0x39, 0x23, 0x4e, 0xd4, 0x49, 0x1c, 0xba, 
  0x81, 0xd0, 0x40, 0x0b, 0x8c, 0x09, 0x13, 0xae, 0xe9, 0x02, 0xd0, 0x1f, 
  0x00, 0x58, 0xd2, 0xd8, 0xcb, 0xd8, 0x8f, 0xce, 0x91, 0xc3, 0xbb, 0xcb, 
  0x3f, 0x35, 0x81, 0x45, 0xd0, 0xaf, 0x11, 0x96, 0x33, 0xf1, 0x17, 0x02, 
  0xff, 0xf7, 0xde, 0xd8, 0x92, 0x31, 0x50, 0xd7, 0x48, 0xd8, 0xcf, 0x8d, 
  0x48, 0x15, 0x5f, 0x60, 0x3f, 0xf6, 0xce, 0x57, 0xf7, 0xbb, 0x95, 0x0f, 
  0x9d, 0xa2, 0x7f, 0x5f, 0x2a, 0x9f, 0x55, 0xca, 0x11, 0xed, 0x5c, 0x3d, 
  0xb9, 0x2d, 0x2d, 0xf0, 0xa6, 0x0f, 0xc9, 0x97, 0x86, 0xcd, 0x16, 0xf2, 
  0x14, 0xd1, 0x1b, 0x2c, 0x6a, 0xa5, 0x3d, 0x96, 0x81, 0x1e, 0x32, 0x7c, 
  0x9b, 0x5d, 0x4a, 0x6a, 0xb4, 0x81, 0xc1, 0x86, 0x5e, 0xaa, 0x61, 0x99, 
  0x68, 0x27, 0xa8, 0xcf, 0xab, 0x96, 0x67, 0xa4, 0x53, 0xb9, 0x0f, 0x46, 
  0xde, 0xde, 0x0f, 0x7c, 0x68, 0x51, 0x8b, 0x8e, 0xc5, 0x81, 0x3f, 0x71, 
  0xb9, 0xb2, 0x8d, 0xaa, 0xfe, 0xdd, 0x0d, 0x66, 0x48, 0x73, 0x15, 0x60, 
  0x9b, 0xf0, 0x71, 0x6f, 0xb1, 0xf4, 0x9d, 0x2f, 0xb4, 0x63, 0xfe, 0x9e, 
  0x99, 0x74, 0xff, 0x3a, 0xd7, 0x5a, 0x4d, 0xc1, 0xca, 0x16, 0xb2, 0x0e, 
  0xea, 0x7f, 0xdc, 0x47, 0xd0, 0xb5, 0xbb, 0xde, 0xa2, 0xa4, 0x81, 0x74, 
  0xc9, 0x96, 0xba, 0xc9, 0x72, 0xa9, 0xad, 0x6c, 0x4e, 0xd8, 0xe5, 0xa9, 
  0xa8, 0x06, 0x7e, 0x79, 0x04, 0x38, 0xf8, 0x6d, 0x49, 0xc4, 0x29, 0x89, 
  0x2e, 0xd4, 0xd5, 0x3c, 0xc9, 0x48, 0x85, 0x81, 0x9d, 0x3d, 0x24, 0x8e, 
  0x13, 0xf2, 0x99, 0x59, 0x24, 0xa6, 0x9a, 0xa3, 0x9a, 0x8b, 0xd6, 0x45, 
  0xc7, 0x7f, 0xd4, 0x30, 0xb0, 0x9d, 0x14, 0xf9, 0x88, 0x89, 0xc1, 0x41, 
  0x35, 0x89, 0x65, 0x96, 0x20, 0xc8, 0x8e, 0xf3, 0x12, 0x27, 0x54, 0x31, 
  0x8b, 0x4c, 0xf5, 0x06, 0xe9, 0x57, 0xca, 0xfb, 0xfb, 0xa1, 0xcd, 0x4c, 
  0xb0, 0x60, 0xd5, 0x44, 0x08, 0xf8, 0x81, 0x95, 0xdb, 0x97, 0x55, 0x8d, 
  0xf0, 0x74, 0x49, 0xe3, 0x20, 0x57, 0xc4, 0xe8, 0xfd, 0xae, 0x96, 0x7e, 
  0x81, 0x4d, 0x28, 0x59, 0x24, 0x36, 0x87, 0xac, 0xd4, 0xa4, 0x24, 0x3a, 
  0x7f, 0x11, 0x7f, 0xdd, 0x51, 0x59, 0x2d, 0xb2, 0x08, 0x1f, 0x25, 0xa7, 
  0x3b, 0x29, 0x2d, 0xc0, 0x0b, 0x42, 0x5f, 0xfc, 0x75, 0x0e, 0xbe, 0xbd, 
  0x9b, 0x0d, 0xb4, 0x36, 0xde, 0x69, 0xcc, 0x3f, 0xbb, 0x2d, 0x6b, 0xfd, 
  0x81, 0x06, 0x45, 0xaf, 0x9c, 0x87, 0x44, 0x90, 0x33, 0x6c, 0x62, 0x21, 
  0xca, 0xce, 0x2f, 0xba, 0x1b, 0xac, 0xae, 0xa2, 0xf3, 0xd0, 0xcf, 0x76, 
  0x39, 0x8b, 0xb5, 0xa6, 0x48, 0xeb, 0x69, 0x67, 0x81, 0x90, 0x91, 0xac, 
  0x08, 0xb9, 0x68, 0x77, 0x7f, 0xe3, 0xc0, 0xd3, 0xfb, 0xc1, 0x06, 0x05, 
  0xeb, 0xe8, 0x2b, 0x18, 0xfc, 0xef, 0xe5, 0xcd, 0x48, 0x11, 0x49, 0x30, 
  0x9f, 0x6d, 0x1d, 0x5c, 0x4d, 0x9d, 0xbb, 0xd8, 0x8b, 0x70, 0x69, 0x41, 
  0xb6, 0xaf, 0x72, 0x77, 0xd8, 0xb6, 0x7e, 0x62, 0x81, 0xf4, 0xb7, 0x17, 
  0x94, 0xe0, 0x4b, 0x1e, 0x97, 0x51, 0xea, 0x53, 0x9c, 0xca, 0xc1, 0xab, 
  0xf9, 0x8c, 0xf6, 0xf2, 0xc9, 0xbe, 0xbe, 0x05, 0x59, 0x30, 0xb9, 0x3f, 
  0x81, 0x1c, 0x25, 0xb2, 0x4e, 0x1c, 0xac, 0x08, 0xeb, 0x22, 0xd7, 0x7f, 
  0x3a, 0x6d, 0x0a, 0xee, 0x42, 0x42, 0x65, 0x1c, 0x27, 0x43, 0x90, 0x54, 
  0x36, 0xe6, 0xe8, 0x10, 0x08, 0xdb, 0x1d, 0x7f, 0x4e, 0x4f, 0x03, 0x46, 
  0x1f, 0x39, 0xf2, 0x00, 0x40, 0x86, 0x3e, 0x0c, 0x13, 0x70, 0xb1, 0xf1, 
  0xb7, 0xc9, 0x2e, 0xc5, 0xb1, 0xaa, 0xbd, 0x4e, 0x31, 0x4e, 0x90, 0x5c, 
  0x4f, 0x08, 0xc0, 0x2b, 0xfb, 0x0b, 0x69, 0xf7, 0x5b, 0x7f, 0x43, 0x52, 
  0xc6, 0x9c, 0x5b, 0x5e, 0x39, 0x9f, 0x3c, 0x2f, 0xe8, 0x93, 0x6f, 0xc5, 
  0x81, 0xf5, 0xa6, 0x5c, 0x96, 0xda, 0xfe, 0xdf, 0x25, 0xbe, 0x4e, 0x55, 
  0x68, 0xbc, 0xe4, 0xb7, 0x6e, 0x07, 0x9a, 0xde, 0x92, 0x76, 0x3c, 0x94, 
  0x50, 0x04, 0xad, 0x97, 0xd6, 0x9c, 0x5c, 0x26, 0x4c, 0xb6, 0x34, 0x92, 
  0x81, 0x23, 0x50, 0x91, 0xd0, 0xa1, 0x4e, 0xb4, 0xe8, 0xb2, 0xdb, 0xee, 
  0x89, 0xcb, 0x53, 0x7f, 0xcf, 0xd5, 0x89, 0xc3, 0x74, 0x88, 0x5a, 0x28, 
  0x93, 0x6c, 0xf6, 0x01, 0x05, 0x0d, 0x3c, 0x26, 0x53, 0x0d, 0xb1, 0x26, 
  0x2e, 0x4c, 0x31, 0x3b, 0xaa, 0xf2, 0x8b, 0x9e, 0xf1, 0x1a, 0x42, 0xcd, 
  0x0b, 0x15, 0xec, 0x44, 0x81, 0x58, 0x1d, 0x49, 0x46, 0x9d, 0x21, 0x2f, 
  0x66, 0x9a, 0x5f, 0xbe, 0xb1, 0x03, 0xdb, 0x7f, 0xf9, 0x46, 0xfa, 0x55, 
  0xa8, 0xc6, 0x1a, 0xce, 0x77, 0x1b, 0xe2, 0x61, 0xde, 0xd7, 0xa8, 0x0c, 
  0x7d, 0x05, 0x58, 0x56, 0x28, 0xca, 0x4f, 0xcf, 0xb2, 0x4a, 0xeb, 0x81, 
  0x3c, 0x4c, 0xd6, 0x6c, 0x99, 0x93, 0xb7, 0xb2, 0xe4, 0xc3, 0xaa, 0xb9, 
  0x4b, 0x20, 0xe9, 0xa4, 0x41, 0x81, 0xf7, 0xc8, 0x30, 0x92, 0x9d, 0x14, 
  0x70, 0x1d, 0x33, 0x81, 0x5e, 0x6b, 0x95, 0x4a, 0x3e, 0xb2, 0x28, 0x0d, 
  0xf1, 0x05, 0x81, 0x15, 0xfd, 0x86, 0xb8, 0x94, 0xf8, 0x99, 0xce, 0xe4, 
  0x1c, 0xea, 0xe8, 0xb5, 0x46, 0x4e, 0x98, 0x3b, 0x53, 0xba, 0x08, 0x0c, 
  0xca, 0xd1, 0x7e, 0x51, 0x18, 0xda, 0x47, 0x86, 0xb6, 0x83, 0x81, 0x83, 
  0xa1, 0x8c, 0x49, 0xd5, 0xb8, 0x3e, 0x2f, 0xa9, 0x18, 0x00, 0xb2, 0x2a, 
  0x6b, 0xa2, 0x81, 0x99, 0xa8, 0x7a, 0x39, 0x67, 0x27, 0x1d, 0x7a, 0xda, 
  0xeb, 0x5f, 0x8d, 0xdb, 0xaf, 0xb7, 0x89, 0x4e, 0xfb, 0x2d, 0xf4, 0x0a, 
  0x50, 0xa6, 0x4a, 0x63, 0xf1, 0xa7, 0x15, 0x3a, 0xa8, 0x95, 0x74, 0x88, 
  0x92, 0x38, 0x62, 0xb9, 0xe8, 0x0d, 0x81, 0xe1, 0xde, 0x31, 0x2e, 0xbe, 
  0x40, 0x1c, 0x25, 0x1a, 0x7f, 0x18, 0x2d, 0xcd, 0x5b, 0x69, 0xa0, 0x58, 
  0x9c, 0x19, 0xab, 0x12, 0x47, 0x59, 0xce, 0x1e, 0xbb, 0xdd, 0x38, 0x71, 
  0xdc, 0x62, 0xb5, 0x42, 0x72, 0xe2, 0x3f, 0xa6, 0x94, 0x9b, 0xe1, 0x81, 
  0xfb, 0x9e, 0x4d, 0x58, 0x58, 0x05, 0xa8, 0x1f, 0x0a, 0xca, 0x43, 0xdd, 
  0xf7, 0xf2, 0xd5, 0x0d, 0x33, 0x23, 0xa7, 0xf0, 0x9d, 0xd0, 0x09, 0x89, 
  0xb0, 0x8a, 0x82, 0x7b, 0xd4, 0x0a, 0xaa, 0xb2, 0xdb, 0x1e, 0xb7, 0x40, 
  0xb4, 0x1e, 0x61, 0xef, 0xfb, 0x81, 0x4e, 0xda, 0x28, 0xde, 0x8e, 0xcd, 
  0x90, 0x93, 0x11, 0xaa, 0x6c, 0xc5, 0x83, 0xcb, 0x05, 0xaf, 0xf0, 0x88, 
  0x28, 0x51, 0x18, 0x81, 0xab, 0xc3, 0x1e, 0x9d, 0xa9, 0x0c, 0xe0, 0xd5, 
  0x90, 0xdb, 0x9c, 0xb8, 0xfd, 0x7a, 0x7a, 0x1e, 0xba, 0x31, 0x81, 0x69, 
  0x55, 0x21, 0x94, 0x07, 0x91, 0xfa, 0xd1, 0x69, 0xdb, 0x7b, 0x5d, 0xb5, 
  0x9d, 0x7f, 0xd5, 0xc5, 0xef, 0x1d, 0x97, 0xea, 0x98, 0xe6, 0x74, 0xef, 
  0x61, 0x12, 0xe7, 0x57, 0x10, 0xb3, 0x14, 0x22, 0x22, 0x7c, 0x29, 0xc9, 
  0xf6, 0xc5, 0x7f, 0x55, 0xd3, 0xab, 0x96, 0xef, 0x67, 0x05, 0x78, 0x0c, 
  0x32, 0xd2, 0x69, 0xe6, 0xd4, 0x3e, 0x3b, 0x4c, 0x63, 0x06, 0x63, 0x9c, 
  0x95, 0x51, 0x4a, 0x70, 0xbe, 0x21, 0x8a, 0xb5, 0xd2, 0x92, 0x0f, 0x0d, 
  0xa6, 0x6b, 0x81, 0x63, 0xde, 0xc7, 0x50, 0x5e, 0x67, 0x88, 0x25, 0x3a, 
  0x2e, 0xf6, 0xff, 0xff, 0x04, 0x00, 0x00, 0x00, 0x00, 0x01, 0x00, 0x00, 
  0xae, 0x0c, 0x00, 0x00, 0x8e, 0x00, 0x00, 0x00, 0x4f, 0x07, 0x00, 0x00, 
  0x2e, 0x06, 0x00, 0x00, 0xed, 0xfc, 0xff, 0xff, 0x7b, 0x09, 0x00, 0x00, 
  0x9f, 0x08, 0x00, 0x00, 0x13, 0xf6, 0xff, 0xff, 0x82, 0xf8, 0xff, 0xff, 
  0x98, 0x0c, 0x00, 0x00, 0x84, 0xf6, 0xff, 0xff, 0x22, 0xf9, 0xff, 0xff, 
  0x26, 0x0a, 0x00, 0x00, 0xb2, 0xf7, 0xff, 0xff, 0xd5, 0x06, 0x00, 0x00, 
  0xbf, 0xfb, 0xff, 0xff, 0xd2, 0x0c, 0x00, 0x00, 0x9d, 0xf1, 0xff, 0xff, 
  0x3b, 0xfc, 0xff, 0xff, 0x41, 0xf5, 0xff, 0xff, 0x4b, 0xf9, 0xff, 0xff, 
  0x00, 0x07, 0x00, 0x00, 0x62, 0x06, 0x00, 0x00, 0x1e, 0xfc, 0xff, 0xff, 
  0x96, 0xf2, 0xff, 0xff, 0xf2, 0xf5, 0xff, 0xff, 0xfa, 0xf5, 0xff, 0xff, 
  0xcb, 0xfb, 0xff, 0xff, 0x60, 0xfd, 0xff, 0xff, 0x9d, 0x06, 0x00, 0x00, 
  0xee, 0x06, 0x00, 0x00, 0x21, 0x00, 0x00, 0x00, 0xd7, 0xf8, 0xff, 0xff, 
  0x1f, 0x05, 0x00, 0x00, 0xff, 0xf5, 0xff, 0xff, 0x82, 0xfb, 0xff, 0xff, 
  0xf2, 0x0c, 0x00, 0x00, 0x06, 0x0f, 0x00, 0x00, 0xc9, 0xf1, 0xff, 0xff, 
  0x0f, 0x04, 0x00, 0x00, 0x4f, 0xfa, 0xff, 0xff, 0xd8, 0xfa, 0xff, 0xff, 
  0x1b, 0x09, 0x00, 0x00, 0x12, 0x0a, 0x00, 0x00, 0x8b, 0xf5, 0xff, 0xff, 
  0x52, 0x00, 0x00, 0x00, 0x79, 0x0e, 0x00, 0x00, 0xf0, 0x03, 0x00, 0x00, 
  0x5f, 0xf6, 0xff, 0xff, 0x59, 0x0a, 0x00, 0x00, 0x4e, 0xf2, 0xff, 0xff, 
  0xd3, 0xf5, 0xff, 0xff, 0x65, 0xfd, 0xff, 0xff, 0x2b, 0xfa, 0xff, 0xff, 
  0x54, 0xf3, 0xff, 0xff, 0xfc, 0xfc, 0xff, 0xff, 0xd8, 0x08, 0x00, 0x00, 
  0x69, 0xf6, 0xff, 0xff, 0x5e, 0xfd, 0xff, 0xff, 0x00, 0x00, 0x00, 0x00, 
  0xb6, 0x07, 0x00, 0x00, 0xcd, 0x04, 0x00, 0x00, 0x05, 0x0a, 0x00, 0x00, 
  0x7c, 0x03, 0x00, 0x00, 0x3a, 0xf7, 0xff, 0xff, 0x04, 0x00, 0x00, 0x00, 
  0x00, 0x08, 0x00, 0x00, 0x22, 0xe3, 0xf4, 0xc4, 0x0e, 0x96, 0x41, 0xab, 
  0x23, 0xab, 0x98, 0xde, 0x29, 0x34, 0xa4, 0x05, 0x26, 0xcb, 0xee, 0x3f, 
  0x54, 0x42, 0x92, 0xe0, 0x50, 0x89, 0x1d, 0xc7, 0x2e, 0x73, 0xdb, 0xe0, 
  0xd2, 0x0b, 0x8d, 0x11, 0x64, 0x3c, 0xe8, 0x54, 0x16, 0xc8, 0x61, 0xae, 
  0x3f, 0x1f, 0x81, 0x03, 0x88, 0x1e, 0x13, 0x39, 0x8e, 0xbc, 0x1f, 0x93, 
  0x5d, 0x94, 0x47, 0x77, 0xd3, 0x10, 0x28, 0xf3, 0x48, 0x19, 0x6b, 0x2a, 
  0x18, 0x75, 0x0d, 0x99, 0xf8, 0x3a, 0x32, 0x46, 0x00, 0x72, 0xcb, 0xc6, 
  0x49, 0x7c, 0xf5, 0xfc, 0x66, 0x1b, 0xce, 0xa6, 0x0c, 0xc4, 0x0f, 0x00, 
  0x57, 0xfc, 0x2e, 0xd3, 0x92, 0x0c, 0xc9, 0x1b, 0xaa, 0x7a, 0xa3, 0xbd, 
  0x65, 0x35, 0x10, 0x5c, 0x28, 0x4f, 0xeb, 0x0a, 0xff, 0xe8, 0xf1, 0xce, 
  0x21, 0x58, 0x3f, 0x55, 0x4e, 0x81, 0x94, 0xf8, 0xd6, 0xd9, 0xb0, 0xea, 
  0x5f, 0xf2, 0xbc, 0xf9, 0x7f, 0xe7, 0x3d, 0x16, 0x2b, 0xe5, 0xcb, 0x31, 
  0xbf, 0x35, 0xf7, 0xa0, 0x1d, 0x78, 0xf7, 0x1f, 0x49, 0x51, 0x08, 0x3b, 
  0x26, 0xaf, 0x21, 0x8c, 0x35, 0xa6, 0x43, 0x76, 0x28, 0xe2, 0x0e, 0xb9, 
  0x26, 0xc3, 0xf8, 0x2d, 0xd6, 0xeb, 0xc6, 0xd9, 0xdc, 0x51, 0xef, 0xb1, 
  0x6b, 0xb5, 0xaa, 0x96, 0x01, 0xc2, 0xc8, 0xfd, 0xd2, 0x77, 0x54, 0xe5, 
  0x3d, 0xba, 0xdc, 0x1f, 0x19, 0x40, 0x2a, 0x49, 0xd0, 0x44, 0x94, 0xff, 
  0x5c, 0x58, 0x36, 0x96, 0xb0, 0xe3, 0x63, 0x0b, 0x9a, 0xb1, 0x72, 0xaf, 
  0x4a, 0x8d, 0xf0, 0x2c, 0xbd, 0x2c, 0xe2, 0x21, 0xa7, 0xcf, 0x1c, 0x69, 
  0xb5, 0xc3, 0x19, 0x5f, 0x7d, 0x75, 0x1f, 0xba, 0x01, 0xd3, 0xc6, 0xf3, 
  0x53, 0xe0, 0x04, 0xae, 0x9d, 0x5c, 0x4a, 0x42, 0x2c, 0x34, 0x7f, 0x3f, 
  0xda, 0x3a, 0xc2, 0x20, 0xe2, 0x54, 0xdf, 0x06, 0x7c, 0xa5, 0xe4, 0x87, 
  0x29, 0x0a, 0x49, 0xca, 0x37, 0x93, 0x31, 0x0a, 0x7c, 0x5e, 0xb7, 0x1a, 
  0xee, 0x53, 0x02, 0xae, 0x8a, 0xc9, 0xb4, 0x2d, 0x4c, 0x36, 0x84, 0xcf, 
  0xbc, 0xa7, 0xa4, 0x62, 0xbb, 0xfb, 0xbf, 0x61, 0xa4, 0xb4, 0x6a, 0xca, 
  0x58, 0x69, 0xaf, 0xfd, 0x27, 0x94, 0x7f, 0x75, 0xd9, 0x7e, 0x89, 0x0f, 
  0x2f, 0xca, 0x1e, 0x78, 0xc7, 0xc9, 0xad, 0x4a, 0x25, 0x14, 0x1b, 0x8e, 
  0xb3, 0xd3, 0xc0, 0x1d, 0x95, 0x93, 0x90, 0x6e, 0x3f, 0x53, 0x35, 0x56, 
  0x1f, 0x34, 0x9a, 0x0c, 0xa1, 0xf0, 0x16, 0x6c, 0x1b, 0x10, 0x81, 0x54, 
  0xde, 0x2a, 0xe2, 0x08, 0x23, 0xc7, 0x3e, 0x11, 0x05, 0x3f, 0x17, 0x71, 
  0x36, 0x61, 0x84, 0xc9, 0x5a, 0xcd, 0x4e, 0xc1, 0x49, 0xb2, 0xb3, 0x8e, 
  0xfc, 0xa5, 0x04, 0x65, 0xe9, 0xd3, 0xf5, 0x60, 0x06, 0x20, 0x69, 0x10, 
  0x67, 0x9b, 0xcc, 0x8d, 0x81, 0x23, 0x50, 0xfe, 0x6d, 0x1b, 0x4e, 0x68, 
  0x48, 0x02, 0x3f, 0x20, 0x74, 0x4b, 0xb1, 0x58, 0x14, 0xfb, 0xe1, 0xa1, 
  0x3c, 0x95, 0x0a, 0x26, 0x46, 0x4a, 0xa8, 0xf1, 0x45, 0xd8, 0xf7, 0xab, 
  0x4f, 0xbb, 0x38, 0x2c, 0x04, 0x34, 0xdc, 0xbb, 0x0c, 0x86, 0x12, 0x8c, 
  0x4d, 0xfb, 0x9e, 0x39, 0xf0, 0xfd, 0x67, 0xab, 0x29, 0x19, 0x51, 0x8a, 
  0x36, 0xef, 0x69, 0x6f, 0xa6, 0x2e, 0x07, 0x31, 0xf8, 0xb4, 0x27, 0x13, 
  0x39, 0xcc, 0x6d, 0xaa, 0x45, 0xc6, 0x00, 0x54, 0xda, 0x0f, 0x9f, 0xa4, 
  0x81, 0x45, 0x31, 0x24, 0xa5, 0xa0, 0xdb, 0x8c, 0xbe, 0x90, 0x76, 0x5f, 
  0xdb, 0xa4, 0x4e, 0x26, 0x9f, 0x8c, 0x69, 0x67, 0x0f, 0xa1, 0xa1, 0xdd, 
  0x35, 0x62, 0x9e, 0xb6, 0xf6, 0x90, 0x9a, 0x1d, 0x82, 0xce, 0x5f, 0x53, 
  0xe3, 0x42, 0x4f, 0x4b, 0x2a, 0x72, 0x53, 0xd1, 0x22, 0xbb, 0x54, 0x2c, 
  0xc6, 0xe8, 0x3a, 0x7e, 0xf2, 0xc9, 0x99, 0xf6, 0x1c, 0x29, 0xb8, 0xdc, 
  0x9c, 0x30, 0x03, 0x69, 0xa5, 0x7f, 0xfd, 0xd4, 0xc6, 0xb9, 0xc0, 0x6d, 
  0xfe, 0xd4, 0x93, 0x05, 0xef, 0x5c, 0x98, 0x4c, 0xa3, 0x6c, 0x48, 0xba, 
  0xc6, 0xa2, 0x3e, 0xad, 0xae, 0xa2, 0x66, 0x9e, 0x4f, 0xbe, 0x13, 0xb2, 
  0x28, 0xc4, 0x22, 0xa1, 0xc0, 0x33, 0x7c, 0x46, 0x00, 0x59, 0xe0, 0x20, 
  0x38, 0x37, 0x9f, 0x3f, 0xe1, 0xe3, 0x0d, 0x4b, 0x6e, 0x3b, 0xae, 0x25, 
  0x27, 0x74, 0x67, 0x1f, 0x72, 0xcd, 0xe2, 0x38, 0x3d, 0x04, 0x19, 0x3a, 
  0x3d, 0x05, 0x70, 0x58, 0xc2, 0xd0, 0xa3, 0xc7, 0xec, 0xcd, 0x19, 0xec, 
  0x3c, 0xe0, 0x0e, 0xd3, 0x2b, 0x7f, 0x13, 0xfa, 0xcc, 0xf7, 0x72, 0x58, 
  0x70, 0x5c, 0xb9, 0x22, 0xe9, 0x0f, 0xb3, 0xd5, 0x4b, 0xf7, 0x06, 0xfd, 
  0x10, 0xa7, 0x45, 0x6c, 0xd8, 0xdd, 0x5c, 0x59, 0xb1, 0x25, 0x6f, 0x1a, 
  0x2a, 0x0a, 0x9d, 0x05, 0x14, 0x68, 0x7f, 0x4a, 0xed, 0x4e, 0x17, 0x44, 
  0x9f, 0x2a, 0xba, 0x47, 0x6a, 0x94, 0xf9, 0xaf, 0x6e, 0x29, 0xe7, 0x47, 
  0x1e, 0x7b, 0x94, 0xbb, 0xfc, 0x20, 0x6b, 0x92, 0x11, 0x77, 0xfc, 0xb3, 
  0xf1, 0x48, 0xb8, 0x38, 0x05, 0xcd, 0xdd, 0xdf, 0xad, 0xec, 0xba, 0xda, 
  0x31, 0x8d, 0x0d, 0x9e, 0xaa, 0xc2, 0xc6, 0xfa, 0x6b, 0x45, 0xd7, 0x22, 
  0x57, 0x30, 0xd9, 0x4f, 0xb5, 0x5b, 0x78, 0xd9, 0xfa, 0x8a, 0x6a, 0x5f, 
  0x3c, 0xaf, 0x0b, 0xfc, 0x2d, 0xae, 0xc4, 0x29, 0xad, 0x16, 0xb2, 0xab, 
  0x9f, 0x61, 0x19, 0x04, 0x06, 0x17, 0x74, 0x64, 0x27, 0xaf, 0xa4, 0x48, 
  0xff, 0xc1, 0xdf, 0xd5, 0x3f, 0x1d, 0xfb, 0x4a, 0xa8, 0x01, 0x40, 0xe0, 
  0xf1, 0x0d, 0xf0, 0x7f, 0x59, 0xe6, 0xa3, 0x1a, 0xae, 0xa1, 0x2e, 0xc1, 
  0x71, 0xec, 0xaf, 0xf3, 0x38, 0xbc, 0xa4, 0x2c, 0xe4, 0xd5, 0x08, 0xbc, 
  0x9b, 0xb6, 0x25, 0xc2, 0x17, 0x38, 0xe2, 0x1d, 0x2b, 0x9b, 0x79, 0x49, 
  0xc1, 0xbc, 0xb7, 0x44, 0xaa, 0xcc, 0x24, 0xb7, 0x2e, 0xcb, 0xc0, 0x99, 
  0x02, 0xb4, 0xa4, 0x2d, 0xbd, 0x8a, 0xa3, 0xcb, 0x34, 0x32, 0x1c, 0x81, 
  0x3e, 0x24, 0xc0, 0x98, 0x1b, 0xe3, 0xb4, 0x92, 0x69, 0xe4, 0x11, 0x63, 
  0xb7, 0x70, 0x05, 0xb0, 0xb6, 0x9b, 0x0a, 0xb2, 0x63, 0x3e, 0xd9, 0xc7, 
  0x7f, 0x9a, 0x55, 0xb5, 0x61, 0xf1, 0xa0, 0xae, 0xd8, 0x42, 0x52, 0x2f, 
  0xfa, 0x05, 0x10, 0x21, 0xc2, 0xc7, 0x23, 0x6d, 0xaa, 0x74, 0xde, 0x4c, 
  0xed, 0xc0, 0x59, 0xd8, 0xf2, 0xb3, 0x5f, 0xda, 0xe4, 0xee, 0x48, 0x70, 
  0xf1, 0xe8, 0xd6, 0x1b, 0x97, 0x75, 0x66, 0x98, 0x37, 0x2b, 0x95, 0xcb, 
  0x42, 0x4a, 0xce, 0x70, 0x4a, 0x46, 0x8f, 0x27, 0xe6, 0x96, 0xc0, 0x4a, 
  0x60, 0x4e, 0x86, 0x33, 0x91, 0x56, 0x3a, 0x07, 0xef, 0x32, 0x55, 0xb1, 
  0x92, 0x1c, 0xe8, 0x09, 0xf1, 0x5c, 0x29, 0x0b, 0xde, 0xe0, 0x87, 0x4e, 
  0xfc, 0x3f, 0xb4, 0xb8, 0x3f, 0xc6, 0xf4, 0x1f, 0xab, 0x65, 0xa3, 0x7f, 
  0x93, 0x11, 0x6a, 0x1d, 0x1b, 0x52, 0xd7, 0xc3, 0x46, 0xbd, 0x7a, 0xf5, 
  0x8b, 0xe3, 0xf6, 0x23, 0x5d, 0x00, 0x3c, 0xe1, 0xa9, 0x76, 0xd9, 0xc7, 
  0xf2, 0xd3, 0x97, 0x8a, 0x63, 0x69, 0x49, 0xe4, 0x5e, 0x5f, 0x7a, 0x94, 
  0x57, 0x5e, 0xd9, 0x72, 0x78, 0x22, 0x50, 0x32, 0xf9, 0x46, 0xe3, 0xfd, 
  0x37, 0x20, 0xff, 0x96, 0xab, 0xc2, 0xab, 0xda, 0x9f, 0x66, 0x8f, 0x47, 
  0xef, 0x3d, 0xfb, 0x7a, 0x52, 0x4d, 0x32, 0xc9, 0xa3, 0xaa, 0x41, 0xd5, 
  0xa2, 0x4d, 0x81, 0xa9, 0x9a, 0x67, 0x5c, 0xb6, 0xe1, 0xf5, 0xd2, 0x6f, 
  0x61, 0xb1, 0x27, 0x56, 0x4b, 0x40, 0x68, 0x26, 0xe6, 0xab, 0x45, 0x1f, 
  0x9d, 0x14, 0x4f, 0x00, 0x1d, 0x78, 0x0c, 0xf7, 0x7f, 0x52, 0xce, 0x1d, 
  0xfd, 0x2d, 0xed, 0xbc, 0x5d, 0x5f, 0xeb, 0xe4, 0x3d, 0xa1, 0xd5, 0x6a, 
  0x55, 0x0f, 0xee, 0xb4, 0x13, 0x1b, 0xa3, 0x10, 0x39, 0xf2, 0xcc, 0xc0, 
  0x4c, 0xb2, 0x63, 0xef, 0x74, 0x61, 0x8f, 0xef, 0x17, 0xc1, 0x4e, 0x23, 
  0xf0, 0xa7, 0x31, 0x38, 0x2e, 0x5d, 0x4e, 0x64, 0xb0, 0x0b, 0xe3, 0x3d, 
  0xc7, 0x15, 0x30, 0x06, 0x47, 0xaa, 0x45, 0x36, 0x1c, 0x88, 0xf5, 0xef, 
  0xa4, 0x09, 0x72, 0x27, 0x3e, 0xac, 0x54, 0x1c, 0x05, 0xb6, 0x9b, 0x33, 
  0xbe, 0x9e, 0xd7, 0x9b, 0xce, 0x28, 0xf8, 0x5e, 0x89, 0xe8, 0xb3, 0xbe, 
  0xea, 0x3f, 0xa2, 0xcc, 0x5b, 0xbc, 0x72, 0xb4, 0x26, 0x4d, 0x9b, 0x2d, 
  0x87, 0x03, 0x9a, 0x67, 0x52, 0x74, 0x2d, 0xa9, 0xd5, 0x3e, 0xc6, 0x36, 
  0xf0, 0x81, 0x37, 0xe6, 0xe0, 0x81, 0x55, 0x59, 0x15, 0x1f, 0x05, 0x11, 
  0x51, 0x31, 0x5b, 0xf5, 0x84, 0xde, 0xd1, 0x10, 0xc3, 0xe0, 0xec, 0x68, 
  0x1c, 0x9b, 0x46, 0xad, 0x4e, 0x9e, 0xea, 0x52, 0x18, 0xd6, 0x0d, 0x19, 
  0x51, 0x69, 0xeb, 0xa4, 0x05, 0xea, 0x21, 0x8f, 0xaa, 0x1c, 0x9b, 0xba, 
  0x6b, 0x6d, 0xdb, 0xd7, 0x06, 0x84, 0xfd, 0xe8, 0x29, 0xcf, 0x67, 0xc4, 
  0xf6, 0x53, 0xdf, 0xa4, 0x9d, 0x56, 0xdf, 0x28, 0xe7, 0x3c, 0x1d, 0x86, 
  0xae, 0x67, 0xa2, 0x05, 0xd2, 0x58, 0x1c, 0x26, 0x45, 0xe7, 0xc3, 0xd7, 
  0x64, 0xfd, 0xf7, 0x16, 0xce, 0x1d, 0xad, 0x27, 0x34, 0xa5, 0x85, 0x3e, 
  0xc0, 0x16, 0x97, 0xcf, 0xc2, 0x92, 0xdd, 0xe1, 0x81, 0x2f, 0x6c, 0xdc, 
  0x8d, 0xa7, 0xde, 0x51, 0x56, 0xb4, 0x59, 0xa7, 0xdd, 0x17, 0x35, 0x23, 
  0xb1, 0x23, 0x28, 0xba, 0x05, 0xf9, 0x08, 0x2a, 0x0b, 0xcb, 0xab, 0x52, 
  0x1e, 0x61, 0x8e, 0x89, 0x34, 0xdd, 0x9f, 0x23, 0x13, 0xbf, 0x5b, 0x26, 
  0xb7, 0x29, 0x2f, 0xde, 0xd5, 0x29, 0x61, 0xff, 0x81, 0x2d, 0xfb, 0x3c, 
  0x14, 0x52, 0xa5, 0x03, 0x8f, 0x68, 0xbe, 0x0a, 0x3a, 0x92, 0x5f, 0x0a, 
  0xce, 0x8c, 0x08, 0x6e, 0xad, 0x83, 0x3d, 0x08, 0x96, 0x3b, 0x69, 0x30, 
  0x37, 0xc6, 0xd1, 0x38, 0x67, 0x61, 0x1f, 0x60, 0x8f, 0x4f, 0x7a, 0x90, 
  0x01, 0x35, 0x26, 0x83, 0x69, 0x02, 0x98, 0x0b, 0xe7, 0xea, 0x13, 0xda, 
  0xf4, 0x89, 0xcf, 0x70, 0x5e, 0x51, 0x8c, 0x4f, 0xa9, 0x32, 0xaa, 0x50, 
  0x44, 0x3c, 0x4b, 0x3e, 0x19, 0xc7, 0x3f, 0xa3, 0xb8, 0xfa, 0x27, 0xd1, 
  0x82, 0x58, 0x38, 0xa1, 0xa0, 0x73, 0x6e, 0x2b, 0xde, 0x19, 0x9b, 0x18, 
  0x9b, 0x28, 0x81, 0x64, 0x86, 0x29, 0xdb, 0xd3, 0xa1, 0x11, 0xbd, 0x83, 
  0x09, 0xa2, 0x98, 0x00, 0x3e, 0x1c, 0x8b, 0xa0, 0xb0, 0x91, 0xaf, 0x84, 
  0x82, 0x3b, 0x92, 0xc0, 0x2c, 0x04, 0xa6, 0xad, 0xd3, 0x02, 0x3a, 0xf4, 
  0x9e, 0xd4, 0x44, 0x08, 0x76, 0x55, 0x54, 0x8e, 0xe8, 0x40, 0x0d, 0x57, 
  0xc6, 0xc3, 0xe9, 0xf9, 0x43, 0x1c, 0x17, 0x0b, 0xc1, 0xcc, 0x58, 0x26, 
  0x69, 0x05, 0x0f, 0x31, 0xf0, 0x0d, 0x46, 0x5d, 0xe8, 0xa4, 0x56, 0x36, 
  0xd2, 0x3f, 0x86, 0x2b, 0xee, 0xa8, 0x7c, 0xd5, 0x8f, 0x45, 0x81, 0x2b, 
  0x31, 0x29, 0xc6, 0xf1, 0x6e, 0xa3, 0xa9, 0x6d, 0x76, 0x76, 0x2b, 0xf8, 
  0x77, 0x59, 0x3c, 0x12, 0x20, 0x38, 0x4d, 0x2f, 0xf0, 0x48, 0x32, 0xee, 
  0xde, 0xef, 0x06, 0x20, 0xa3, 0x57, 0x25, 0x7d, 0x07, 0xd3, 0xb6, 0x9d, 
  0x49, 0x79, 0xa1, 0x74, 0xfc, 0x7f, 0xca, 0xd8, 0x24, 0x11, 0xdb, 0x58, 
  0xc4, 0xdf, 0x73, 0xc4, 0xdd, 0xe1, 0xbb, 0xaa, 0x6d, 0xc3, 0x3f, 0xfa, 
  0x32, 0xa7, 0xe9, 0x06, 0x2c, 0x56, 0x85, 0x21, 0x1f, 0x3c, 0x4d, 0x8d, 
  0xc5, 0x81, 0xc6, 0x4c, 0x5c, 0x93, 0xfc, 0x96, 0xc8, 0x9f, 0xc8, 0x09, 
  0x12, 0x29, 0x4d, 0xad, 0x3a, 0xb1, 0xb0, 0xe9, 0x2b, 0xaf, 0xd1, 0x98, 
  0x09, 0x32, 0xa0, 0xa7, 0x0f, 0xe6, 0xed, 0xde, 0x91, 0x62, 0x69, 0x9b, 
  0x5e, 0xeb, 0xb2, 0x0b, 0xa7, 0x10, 0x69, 0x02, 0xf9, 0x37, 0xb2, 0x2d, 
  0x3c, 0x58, 0xa3, 0x9e, 0xff, 0x88, 0x28, 0x5d, 0xea, 0x09, 0x89, 0x97, 
  0xde, 0xa2, 0x79, 0x1a, 0x5b, 0x45, 0x44, 0x4a, 0x1f, 0xa1, 0xf0, 0x0d, 
  0x47, 0xed, 0x40, 0x6d, 0xf8, 0x68, 0x3f, 0xbf, 0x18, 0x7b, 0x51, 0x6a, 
  0xb4, 0xd8, 0xaa, 0x7b, 0xf3, 0x15, 0xb5, 0x39, 0xd1, 0xae, 0x8d, 0x32, 
  0x45, 0xac, 0x6d, 0x99, 0x99, 0xa8, 0xc5, 0x7f, 0xef, 0x64, 0xf3, 0x6d, 
  0x61, 0x33, 0xfa, 0x0b, 0xa9, 0xce, 0x39, 0x8b, 0xf0, 0x88, 0x77, 0x60, 
  0xb8, 0x15, 0x84, 0x8b, 0x3e, 0xf2, 0x3c, 0x8b, 0xed, 0x7e, 0xb4, 0x6c, 
  0xfd, 0x58, 0x69, 0x6f, 0x0f, 0x91, 0xef, 0xda, 0xe3, 0x8e, 0x8b, 0xff, 
  0x25, 0x16, 0x64, 0xf7, 0x2f, 0x86, 0x0a, 0x64, 0x98, 0x66, 0x67, 0x09, 
  0x23, 0xba, 0x26, 0x67, 0xe3, 0x44, 0x8f, 0x81, 0x8f, 0xc5, 0x4e, 0x5a, 
  0xb7, 0x2b, 0x55, 0x3e, 0xdc, 0x2b, 0xc1, 0xe9, 0xa5, 0xee, 0xb7, 0xb5, 
  0xd7, 0x29, 0x67, 0x6c, 0x24, 0xa3, 0xba, 0x41, 0x1c, 0x36, 0x32, 0xef, 
  0x4f, 0x4d, 0x18, 0x01, 0xc4, 0x3e, 0x9f, 0x7a, 0x81, 0x4d, 0xb8, 0xf8, 
  0x26, 0x2c, 0xce, 0x96, 0x9b, 0x93, 0x44, 0x02, 0xa7, 0xdd, 0x06, 0x1e, 
  0xb3, 0x98, 0xd3, 0xcd, 0xec, 0x96, 0x32, 0x54, 0x4d, 0x5f, 0xb0, 0x71, 
  0x0d, 0xd0, 0xe3, 0x63, 0x6e, 0x9d, 0x84, 0x6c, 0x79, 0x40, 0x82, 0x46, 
  0xb4, 0xc0, 0x22, 0x4b, 0x2e, 0x01, 0x81, 0xc9, 0x40, 0x0a, 0x10, 0xbe, 
  0xe4, 0x95, 0x9e, 0xa2, 0x60, 0xe0, 0x9b, 0x99, 0x68, 0x93, 0x4a, 0xa2, 
  0x4a, 0xe4, 0xe0, 0xdc, 0xaf, 0xd7, 0xb2, 0x28, 0x49, 0x3f, 0x71, 0xfd, 
  0xc8, 0xe8, 0x55, 0x3e, 0xd2, 0x66, 0xa2, 0x9b, 0x2e, 0x6d, 0x18, 0x90, 
  0x7f, 0x10, 0xe7, 0x1e, 0xda, 0xc0, 0xe0, 0x72, 0xab, 0x48, 0x96, 0xf7, 
  0x60, 0x1a, 0x81, 0xb2, 0xa2, 0x2c, 0xcc, 0xf9, 0x5d, 0xa8, 0xc1, 0x26, 
  0xed, 0xb1, 0x7d, 0xf7, 0xc4, 0x68, 0x7d, 0x8f, 0x76, 0xa1, 0xed, 0xff, 
  0xf0, 0x23, 0x25, 0xfe, 0xee, 0xff, 0x2e, 0x14, 0xa6, 0x98, 0x58, 0x78, 
  0x2b, 0x1c, 0x7f, 0x20, 0x67, 0xbf, 0x3e, 0x0f, 0x5f, 0xb2, 0x24, 0x88, 
  0xc9, 0x7c, 0xdc, 0xa1, 0x4e, 0xc2, 0xee, 0x18, 0x3d, 0xf0, 0x50, 0x60, 
  0xba, 0xb3, 0x6d, 0xaf, 0x95, 0xb4, 0x00, 0xe4, 0x53, 0x4b, 0xc5, 0xab, 
  0x7f, 0x34, 0x99, 0x37, 0xf9, 0x1d, 0x14, 0x3c, 0xc4, 0x26, 0xcc, 0xa3, 
  0x40, 0x63, 0xcf, 0xc3, 0x75, 0x07, 0x39, 0x5a, 0xea, 0x97, 0x32, 0x57, 
  0xcf, 0x26, 0x99, 0x0e, 0x02, 0x13, 0xcf, 0x30, 0xa8, 0xb0, 0x73, 0xf6, 
  0x05, 0x44, 0xdd, 0x20, 0x05, 0xc3, 0xb4, 0x7a, 0xf9, 0x1d, 0xd0, 0x46, 
  0x66, 0xd2, 0x96, 0x8d, 0xa3, 0x2f, 0xaa, 0xe1, 0x38, 0x39, 0x7f, 0xbc, 
  0x52, 0x96, 0x4a, 0xe7, 0x47, 0x3c, 0x29, 0x6e, 0x18, 0x7b, 0xcb, 0x9e, 
  0x9b, 0x12, 0xaf, 0x0b, 0x35, 0xa8, 0x93, 0x92, 0x7b, 0xce, 0xcb, 0x3c, 
  0x37, 0x43, 0xb4, 0x9f, 0x57, 0xc0, 0x4e, 0x08, 0xe2, 0x5f, 0x8e, 0xac, 
  0x58, 0x4f, 0x32, 0x31, 0x6f, 0x5c, 0x79, 0x49, 0x62, 0xf5, 0xfa, 0x97, 
  0xf4, 0x47, 0xf6, 0x24, 0x9c, 0xb0, 0xc6, 0x7c, 0x71, 0xcb, 0xe1, 0x54, 
  0x01, 0x46, 0x64, 0xfd, 0xb4, 0x58, 0x26, 0x61, 0x3b, 0x43, 0x7f, 0x76, 
  0x46, 0xff, 0xff, 0xff, 0x04, 0x00, 0x00, 0x00, 0x80, 0x00, 0x00, 0x00, 
  0x93, 0x06, 0x00, 0x00, 0x9b, 0xfb, 0xff, 0xff, 0x7f, 0x0a, 0x00, 0x00, 
  0xd3, 0x06, 0x00, 0x00, 0x6a, 0xfe, 0xff, 0xff, 0xe3, 0xf9, 0xff, 0xff, 
  0x1e, 0xfa, 0xff, 0xff, 0xcf, 0xf9, 0xff, 0xff, 0x7b, 0x04, 0x00, 0x00, 
  0x60, 0x06, 0x00, 0x00, 0x3c, 0x08, 0x00, 0x00, 0x3a, 0x09, 0x00, 0x00, 
  0x7b, 0xfa, 0xff, 0xff, 0xca, 0x04, 0x00, 0x00, 0x2a, 0x02, 0x00, 0x00, 
  0xb8, 0x07, 0x00, 0x00, 0x0f, 0x07, 0x00, 0x00, 0xd6, 0xfb, 0xff, 0xff, 
  0x7c, 0xf9, 0xff, 0xff, 0x75, 0xf7, 0xff, 0xff, 0xbd, 0xf7, 0xff, 0xff, 
  0x58, 0xfa, 0xff, 0xff, 0x82, 0xfa, 0xff, 0xff, 0x27, 0x07, 0x00, 0x00, 
  0x95, 0xfa, 0xff, 0xff, 0x62, 0x02, 0x00, 0x00, 0x4a, 0xf9, 0xff, 0xff, 
  0x41, 0xfa, 0xff, 0xff, 0x76, 0xff, 0xff, 0xff, 0xac, 0x05, 0x00, 0x00, 
  0xfa, 0x06, 0x00, 0x00, 0x70, 0x07, 0x00, 0x00, 0xd2, 0xff, 0xff, 0xff, 
  0x04, 0x00, 0x00, 0x00, 0x20, 0x00, 0x00, 0x00, 0x1f, 0x03, 0x4a, 0x0b, 
  0xb1, 0xab, 0x9d, 0xff, 0x60, 0x47, 0x2e, 0x67, 0xa6, 0x7f, 0x77, 0x3e, 
  0x56, 0xa0, 0xa3, 0xde, 0x9f, 0xea, 0xd5, 0x1c, 0xe1, 0x09, 0xe0, 0xb7, 
  0xed, 0x5f, 0x40, 0x0f, 0x00, 0x00, 0x06, 0x00, 0x08, 0x00, 0x04, 0x00, 
  0x06, 0x00, 0x00, 0x00, 0x04, 0x00, 0x00, 0x00, 0x04, 0x00, 0x00, 0x00, 
  0x02, 0x06, 0x00, 0x00, 0x84, 0xff, 0xff, 0xff, 0x88, 0xff, 0xff, 0xff, 
  0x0f, 0x00, 0x00, 0x00, 0x4d, 0x4c, 0x49, 0x52, 0x20, 0x43, 0x6f, 0x6e, 
  0x76, 0x65, 0x72, 0x74, 0x65, 0x64, 0x2e, 0x00, 0x01, 0x00, 0x00, 0x00, 
  0x14, 0x00, 0x00, 0x00, 0x00, 0x00, 0x0e, 0x00, 0x18, 0x00, 0x14, 0x00, 
  0x10, 0x00, 0x0c, 0x00, 0x08, 0x00, 0x04, 0x00, 0x0e, 0x00, 0x00, 0x00, 
  0x14, 0x00, 0x00, 0x00, 0x1c, 0x00, 0x00, 0x00, 0xdc, 0x00, 0x00, 0x00, 
  0xe0, 0x00, 0x00, 0x00, 0xe4, 0x00, 0x00, 0x00, 0x04, 0x00, 0x00, 0x00, 
  0x6d, 0x61, 0x69, 0x6e, 0x00, 0x00, 0x00, 0x00, 0x03, 0x00, 0x00, 0x00, 
  0x84, 0x00, 0x00, 0x00, 0x3c, 0x00, 0x00, 0x00, 0x04, 0x00, 0x00, 0x00, 
  0x96, 0xff, 0xff, 0xff, 0x14, 0x00, 0x00, 0x00, 0x00, 0x00, 0x00, 0x08, 
  0x10, 0x00, 0x00, 0x00, 0x14, 0x00, 0x00, 0x00, 0x04, 0x00, 0x04, 0x00, 
  0x04, 0x00, 0x00, 0x00, 0x01, 0x00, 0x00, 0x00, 0x09, 0x00, 0x00, 0x00, 
  0x03, 0x00, 0x00, 0x00, 0x08, 0x00, 0x00, 0x00, 0x02, 0x00, 0x00, 0x00, 
  0x01, 0x00, 0x00, 0x00, 0xca, 0xff, 0xff, 0xff, 0x10, 0x00, 0x00, 0x00, 
  0x00, 0x00, 0x00, 0x08, 0x10, 0x00, 0x00, 0x00, 0x14, 0x00, 0x00, 0x00, 
  0xba, 0xff, 0xff, 0xff, 0x00, 0x00, 0x00, 0x01, 0x01, 0x00, 0x00, 0x00, 
  0x08, 0x00, 0x00, 0x00, 0x03, 0x00, 0x00, 0x00, 0x07, 0x00, 0x00, 0x00, 
  0x04, 0x00, 0x00, 0x00, 0x03, 0x00, 0x00, 0x00, 0x00, 0x00, 0x0e, 0x00, 
  0x16, 0x00, 0x00, 0x00, 0x10, 0x00, 0x0c, 0x00, 0x0b, 0x00, 0x04, 0x00, 
  0x0e, 0x00, 0x00, 0x00, 0x18, 0x00, 0x00, 0x00, 0x00, 0x00, 0x00, 0x08, 
  0x18, 0x00, 0x00, 0x00, 0x1c, 0x00, 0x00, 0x00, 0x00, 0x00, 0x06, 0x00, 
  0x08, 0x00, 0x07, 0x00, 0x06, 0x00, 0x00, 0x00, 0x00, 0x00, 0x00, 0x01, 
  0x01, 0x00, 0x00, 0x00, 0x07, 0x00, 0x00, 0x00, 0x03, 0x00, 0x00, 0x00, 
  0x00, 0x00, 0x00, 0x00, 0x06, 0x00, 0x00, 0x00, 0x05, 0x00, 0x00, 0x00, 
  0x01, 0x00, 0x00, 0x00, 0x09, 0x00, 0x00, 0x00, 0x01, 0x00, 0x00, 0x00, 
  0x00, 0x00, 0x00, 0x00, 0x0a, 0x00, 0x00, 0x00, 0x44, 0x0d, 0x00, 0x00, 
  0xcc, 0x0c, 0x00, 0x00, 0x50, 0x0c, 0x00, 0x00, 0x7c, 0x0a, 0x00, 0x00, 
  0xa0, 0x08, 0x00, 0x00, 0x4c, 0x05, 0x00, 0x00, 0xf0, 0x01, 0x00, 0x00, 
  0x3c, 0x01, 0x00, 0x00, 0x80, 0x00, 0x00, 0x00, 0x04, 0x00, 0x00, 0x00, 
  0xfa, 0xf2, 0xff, 0xff, 0x00, 0x00, 0x00, 0x01, 0x18, 0x00, 0x00, 0x00, 
  0x20, 0x00, 0x00, 0x00, 0x3c, 0x00, 0x00, 0x00, 0x0a, 0x00, 0x00, 0x00, 
  0x00, 0x00, 0x00, 0x09, 0x50, 0x00, 0x00, 0x00, 0x02, 0x00, 0x00, 0x00, 
  0xff, 0xff, 0xff, 0xff, 0x01, 0x00, 0x00, 0x00, 0xe4, 0xf2, 0xff, 0xff, 
  0x08, 0x00, 0x00, 0x00, 0x10, 0x00, 0x00, 0x00, 0x01, 0x00, 0x00, 0x00, 
  0x80, 0xff, 0xff, 0xff, 0xff, 0xff, 0xff, 0xff, 0x01, 0x00, 0x00, 0x00, 
  0x18, 0x70, 0x49, 0x3b, 0x1b, 0x00, 0x00, 0x00, 0x53, 0x74, 0x61, 0x74, 
  0x65, 0x66, 0x75, 0x6c, 0x50, 0x61, 0x72, 0x74, 0x69, 0x74, 0x69, 0x6f, 
  0x6e, 0x65, 0x64, 0x43, 0x61, 0x6c, 0x6c, 0x5f, 0x31, 0x3a, 0x30, 0x00, 
  0x02, 0x00, 0x00, 0x00, 0x01, 0x00, 0x00, 0x00, 0x01, 0x00, 0x00, 0x00, 
  0x72, 0xf3, 0xff, 0xff, 0x00, 0x00, 0x00, 0x01, 0x18, 0x00, 0x00, 0x00, 
  0x20, 0x00, 0x00, 0x00, 0x3c, 0x00, 0x00, 0x00, 0x09, 0x00, 0x00, 0x00, 
  0x00, 0x00, 0x00, 0x09, 0x90, 0x00, 0x00, 0x00, 0x02, 0x00, 0x00, 0x00, 
  0xff, 0xff, 0xff, 0xff, 0x20, 0x00, 0x00, 0x00, 0x5c, 0xf3, 0xff, 0xff, 
  0x08, 0x00, 0x00, 0x00, 0x10, 0x00, 0x00, 0x00, 0x01, 0x00, 0x00, 0x00, 
  0x80, 0xff, 0xff, 0xff, 0xff, 0xff, 0xff, 0xff, 0x01, 0x00, 0x00, 0x00, 
  0xf0, 0x31, 0x7c, 0x3b, 0x58, 0x00, 0x00, 0x00, 0x73, 0x65, 0x71, 0x75, 
  0x65, 0x6e, 0x74, 0x69, 0x61, 0x6c, 0x5f, 0x31, 0x2f, 0x64, 0x65, 0x6e, 
  0x73, 0x65, 0x5f, 0x31, 0x5f, 0x32, 0x2f, 0x4d, 0x61, 0x74, 0x4d, 0x75, 
  0x6c, 0x3b, 0x73, 0x65, 0x71, 0x75, 0x65, 0x6e, 0x74, 0x69, 0x61, 0x6c, 
  0x5f, 0x31, 0x2f, 0x64, 0x65, 0x6e, 0x73, 0x65, 0x5f, 0x31, 0x5f, 0x32, 
  0x2f, 0x52, 0x65, 0x6c, 0x75, 0x3b, 0x73, 0x65, 0x71, 0x75, 0x65, 0x6e, 
  0x74, 0x69, 0x61, 0x6c, 0x5f, 0x31, 0x2f, 0x64, 0x65, 0x6e, 0x73, 0x65, 
  0x5f, 0x31, 0x5f, 0x32, 0x2f, 0x42, 0x69, 0x61, 0x73, 0x41, 0x64, 0x64, 
  0x00, 0x00, 0x00, 0x00, 0x02, 0x00, 0x00, 0x00, 0x01, 0x00, 0x00, 0x00, 
  0x20, 0x00, 0x00, 0x00, 0x2a, 0xf4, 0xff, 0xff, 0x00, 0x00, 0x00, 0x01, 
  0x18, 0x00, 0x00, 0x00, 0x20, 0x00, 0x00, 0x00, 0x3c, 0x00, 0x00, 0x00, 
  0x08, 0x00, 0x00, 0x00, 0x00, 0x00, 0x00, 0x09, 0x88, 0x00, 0x00, 0x00, 
  0x02, 0x00, 0x00, 0x00, 0xff, 0xff, 0xff, 0xff, 0x40, 0x00, 0x00, 0x00, 
  0x14, 0xf4, 0xff, 0xff, 0x08, 0x00, 0x00, 0x00, 0x10, 0x00, 0x00, 0x00, 
  0x01, 0x00, 0x00, 0x00, 0x80, 0xff, 0xff, 0xff, 0xff, 0xff, 0xff, 0xff, 
  0x01, 0x00, 0x00, 0x00, 0xf8, 0x50, 0xb0, 0x3b, 0x52, 0x00, 0x00, 0x00, 
  0x73, 0x65, 0x71, 0x75, 0x65, 0x6e, 0x74, 0x69, 0x61, 0x6c, 0x5f, 0x31, 
  0x2f, 0x64, 0x65, 0x6e, 0x73, 0x65, 0x5f, 0x31, 0x2f, 0x4d, 0x61, 0x74, 
  0x4d, 0x75, 0x6c, 0x3b, 0x73, 0x65, 0x71, 0x75, 0x65, 0x6e, 0x74, 0x69, 
  0x61, 0x6c, 0x5f, 0x31, 0x2f, 0x64, 0x65, 0x6e, 0x73, 0x65, 0x5f, 0x31, 
  0x2f, 0x52, 0x65, 0x6c, 0x75, 0x3b, 0x73, 0x65, 0x71, 0x75, 0x65, 0x6e, 
  0x74, 0x69, 0x61, 0x6c, 0x5f, 0x31, 0x2f, 0x64, 0x65, 0x6e, 0x73, 0x65, 
  0x5f, 0x31, 0x2f, 0x42, 0x69, 0x61, 0x73, 0x41, 0x64, 0x64, 0x00, 0x00, 
  0x02, 0x00, 0x00, 0x00, 0x01, 0x00, 0x00, 0x00, 0x40, 0x00, 0x00, 0x00, 
  0x4e, 0xf5, 0xff, 0xff, 0x00, 0x00, 0x00, 0x01, 0x14, 0x00, 0x00, 0x00, 
  0x28, 0x03, 0x00, 0x00, 0x07, 0x00, 0x00, 0x00, 0x00, 0x00, 0x00, 0x09, 
  0x34, 0x03, 0x00, 0x00, 0xb4, 0xf4, 0xff, 0xff, 0x08, 0x00, 0x00, 0x00, 
  0x0c, 0x02, 0x00, 0x00, 0x40, 0x00, 0x00, 0x00, 0x00, 0x00, 0x00, 0x00, 
  0x00, 0x00, 0x00, 0x00, 0x00, 0x00, 0x00, 0x00, 0x00, 0x00, 0x00, 0x00, 
  0x00, 0x00, 0x00, 0x00, 0x00, 0x00, 0x00, 0x00, 0x00, 0x00, 0x00, 0x00, 
  0x00, 0x00, 0x00, 0x00, 0x00, 0x00, 0x00, 0x00, 0x00, 0x00, 0x00, 0x00, 
  0x00, 0x00, 0x00, 0x00, 0x00, 0x00, 0x00, 0x00, 0x00, 0x00, 0x00, 0x00, 
  0x00, 0x00, 0x00, 0x00, 0x00, 0x00, 0x00, 0x00, 0x00, 0x00, 0x00, 0x00, 
  0x00, 0x00, 0x00, 0x00, 0x00, 0x00, 0x00, 0x00, 0x00, 0x00, 0x00, 0x00, 
  0x00, 0x00, 0x00, 0x00, 0x00, 0x00, 0x00, 0x00, 0x00, 0x00, 0x00, 0x00, 
  0x00, 0x00, 0x00, 0x00, 0x00, 0x00, 0x00, 0x00, 0x00, 0x00, 0x00, 0x00, 
  0x00, 0x00, 0x00, 0x00, 0x00, 0x00, 0x00, 0x00, 0x00, 0x00, 0x00, 0x00, 
  0x00, 0x00, 0x00, 0x00, 0x00, 0x00, 0x00, 0x00, 0x00, 0x00, 0x00, 0x00, 
  0x00, 0x00, 0x00, 0x00, 0x00, 0x00, 0x00, 0x00, 0x00, 0x00, 0x00, 0x00, 
  0x00, 0x00, 0x00, 0x00, 0x00, 0x00, 0x00, 0x00, 0x00, 0x00, 0x00, 0x00, 
  0x00, 0x00, 0x00, 0x00, 0x00, 0x00, 0x00, 0x00, 0x00, 0x00, 0x00, 0x00, 
  0x00, 0x00, 0x00, 0x00, 0x00, 0x00, 0x00, 0x00, 0x00, 0x00, 0x00, 0x00, 
  0x00, 0x00, 0x00, 0x00, 0x00, 0x00, 0x00, 0x00, 0x00, 0x00, 0x00, 0x00, 
  0x00, 0x00, 0x00, 0x00, 0x00, 0x00, 0x00, 0x00, 0x00, 0x00, 0x00, 0x00, 
  0x00, 0x00, 0x00, 0x00, 0x00, 0x00, 0x00, 0x00, 0x00, 0x00, 0x00, 0x00, 
  0x00, 0x00, 0x00, 0x00, 0x00, 0x00, 0x00, 0x00, 0x00, 0x00, 0x00, 0x00, 
  0x00, 0x00, 0x00, 0x00, 0x00, 0x00, 0x00, 0x00, 0x00, 0x00, 0x00, 0x00, 
  0x00, 0x00, 0x00, 0x00, 0x00, 0x00, 0x00, 0x00, 0x00, 0x00, 0x00, 0x00, 
  0x00, 0x00, 0x00, 0x00, 0x00, 0x00, 0x00, 0x00, 0x00, 0x00, 0x00, 0x00, 
  0x00, 0x00, 0x00, 0x00, 0x00, 0x00, 0x00, 0x00, 0x00, 0x00, 0x00, 0x00, 
  0x00, 0x00, 0x00, 0x00, 0x00, 0x00, 0x00, 0x00, 0x00, 0x00, 0x00, 0x00, 
  0x00, 0x00, 0x00, 0x00, 0x00, 0x00, 0x00, 0x00, 0x00, 0x00, 0x00, 0x00, 
  0x00, 0x00, 0x00, 0x00, 0x00, 0x00, 0x00, 0x00, 0x00, 0x00, 0x00, 0x00, 
  0x00, 0x00, 0x00, 0x00, 0x00, 0x00, 0x00, 0x00, 0x00, 0x00, 0x00, 0x00, 
  0x00, 0x00, 0x00, 0x00, 0x00, 0x00, 0x00, 0x00, 0x00, 0x00, 0x00, 0x00, 
  0x00, 0x00, 0x00, 0x00, 0x00, 0x00, 0x00, 0x00, 0x00, 0x00, 0x00, 0x00, 
  0x00, 0x00, 0x00, 0x00, 0x00, 0x00, 0x00, 0x00, 0x00, 0x00, 0x00, 0x00, 
  0x00, 0x00, 0x00, 0x00, 0x00, 0x00, 0x00, 0x00, 0x00, 0x00, 0x00, 0x00, 
  0x00, 0x00, 0x00, 0x00, 0x00, 0x00, 0x00, 0x00, 0x00, 0x00, 0x00, 0x00, 
  0x00, 0x00, 0x00, 0x00, 0x00, 0x00, 0x00, 0x00, 0x00, 0x00, 0x00, 0x00, 
  0x00, 0x00, 0x00, 0x00, 0x00, 0x00, 0x00, 0x00, 0x00, 0x00, 0x00, 0x00, 
  0x00, 0x00, 0x00, 0x00, 0x00, 0x00, 0x00, 0x00, 0x00, 0x00, 0x00, 0x00, 
  0x00, 0x00, 0x00, 0x00, 0x00, 0x00, 0x00, 0x00, 0x00, 0x00, 0x00, 0x00, 
  0x00, 0x00, 0x00, 0x00, 0x00, 0x00, 0x00, 0x00, 0x00, 0x00, 0x00, 0x00, 
  0x00, 0x00, 0x00, 0x00, 0x00, 0x00, 0x00, 0x00, 0x00, 0x00, 0x00, 0x00, 
  0x00, 0x00, 0x00, 0x00, 0x00, 0x00, 0x00, 0x00, 0x00, 0x00, 0x00, 0x00, 
  0x00, 0x00, 0x00, 0x00, 0x00, 0x00, 0x00, 0x00, 0x00, 0x00, 0x00, 0x00, 
  0x00, 0x00, 0x00, 0x00, 0x00, 0x00, 0x00, 0x00, 0x00, 0x00, 0x00, 0x00, 
  0x00, 0x00, 0x00, 0x00, 0x00, 0x00, 0x00, 0x00, 0x00, 0x00, 0x00, 0x00, 
  0x00, 0x00, 0x00, 0x00, 0x00, 0x00, 0x00, 0x00, 0x00, 0x00, 0x00, 0x00, 
  0x00, 0x00, 0x00, 0x00, 0x00, 0x00, 0x00, 0x00, 0x40, 0x00, 0x00, 0x00, 
  0x1c, 0x19, 0x0e, 0x3b, 0xcb, 0xbf, 0xf1, 0x3a, 0x72, 0x93, 0x06, 0x3b, 
  0x14, 0xe3, 0xf3, 0x3a, 0x4b, 0x29, 0x03, 0x3b, 0xaa, 0xc1, 0x0f, 0x3b, 
  0xae, 0xea, 0x04, 0x3b, 0x08, 0xbd, 0xf7, 0x3a, 0xa7, 0x18, 0xfa, 0x3a, 
  0x2f, 0xba, 0x08, 0x3b, 0x79, 0xa7, 0x0a, 0x3b, 0x39, 0x89, 0x09, 0x3b, 
  0x8a, 0xf5, 0x04, 0x3b, 0x51, 0xca, 0x08, 0x3b, 0xb9, 0x09, 0xea, 0x3a, 
  0x2e, 0x9e, 0xf7, 0x3a, 0x4d, 0x91, 0xeb, 0x3a, 0x3c, 0xde, 0xeb, 0x3a, 
  0xc5, 0x61, 0x0a, 0x3b, 0xa2, 0x7a, 0xe7, 0x3a, 0x2d, 0xed, 0x05, 0x3b, 
  0x48, 0x10, 0x09, 0x3b, 0x9f, 0x32, 0x08, 0x3b, 0x49, 0x5f, 0xe1, 0x3a, 
  0x24, 0xb0, 0x12, 0x3b, 0xc4, 0xf5, 0x00, 0x3b, 0x24, 0x89, 0xf4, 0x3a, 
  0x3e, 0xa6, 0x01, 0x3b, 0xfb, 0x03, 0xf8, 0x3a, 0x4c, 0x52, 0xfb, 0x3a, 
  0x56, 0xfa, 0x0a, 0x3b, 0xb7, 0x18, 0xfd, 0x3a, 0x4c, 0x7e, 0xff, 0x3a, 
  0x9b, 0x7c, 0xfd, 0x3a, 0x45, 0x96, 0x05, 0x3b, 0xa5, 0x64, 0xf0, 0x3a, 
  0x06, 0x68, 0x09, 0x3b, 0xd8, 0x26, 0x02, 0x3b, 0xd2, 0x4a, 0xfe, 0x3a, 
  0xae, 0xf1, 0x09, 0x3b, 0x99, 0x51, 0xf1, 0x3a, 0x3c, 0x39, 0x05, 0x3b, 
  0xb3, 0x79, 0x0a, 0x3b, 0x91, 0xa8, 0x00, 0x3b, 0xe1, 0xc3, 0x02, 0x3b, 
  0xa0, 0xe7, 0x03, 0x3b, 0x87, 0x9f, 0xf6, 0x3a, 0x67, 0x69, 0x06, 0x3b, 
  0xfb, 0x85, 0x0d, 0x3b, 0x23, 0x94, 0x0a, 0x3b, 0x92, 0xda, 0xe9, 0x3a, 
  0x81, 0x15, 0xfc, 0x3a, 0x77, 0xbd, 0x02, 0x3b, 0x3a, 0x42, 0x00, 0x3b, 
  0xa6, 0x44, 0xfb, 0x3a, 0x65, 0x3d, 0x08, 0x3b, 0xde, 0x6a, 0x0a, 0x3b, 
  0x1c, 0xa9, 0x09, 0x3b, 0x74, 0xc7, 0x04, 0x3b, 0x1c, 0x4e, 0x04, 0x3b, 
  0x58, 0xc2, 0x02, 0x3b, 0xd6, 0x8c, 0x02, 0x3b, 0xe5, 0x2a, 0x06, 0x3b, 
  0x0c, 0x74, 0x0b, 0x3b, 0x12, 0x00, 0x00, 0x00, 0x74, 0x66, 0x6c, 0x2e, 
  0x70, 0x73, 0x65, 0x75, 0x64, 0x6f, 0x5f, 0x71, 0x63, 0x6f, 0x6e, 0x73, 
  0x74, 0x35, 0x00, 0x00, 0x02, 0x00, 0x00, 0x00, 0x40, 0x00, 0x00, 0x00, 
  0x19, 0x00, 0x00, 0x00, 0xa6, 0xf8, 0xff, 0xff, 0x00, 0x00, 0x00, 0x01, 
  0x14, 0x00, 0x00, 0x00, 0x24, 0x03, 0x00, 0x00, 0x06, 0x00, 0x00, 0x00, 
  0x00, 0x00, 0x00, 0x02, 0x30, 0x03, 0x00, 0x00, 0x0c, 0xf8, 0xff, 0xff, 
  0x08, 0x00, 0x00, 0x00, 0x08, 0x02, 0x00, 0x00, 0x40, 0x00, 0x00, 0x00, 
  0x00, 0x00, 0x00, 0x00, 0x00, 0x00, 0x00, 0x00, 0x00, 0x00, 0x00, 0x00, 
  0x00, 0x00, 0x00, 0x00, 0x00, 0x00, 0x00, 0x00, 0x00, 0x00, 0x00, 0x00, 
  0x00, 0x00, 0x00, 0x00, 0x00, 0x00, 0x00, 0x00, 0x00, 0x00, 0x00, 0x00, 
  0x00, 0x00, 0x00, 0x00, 0x00, 0x00, 0x00, 0x00, 0x00, 0x00, 0x00, 0x00, 
  0x00, 0x00, 0x00, 0x00, 0x00, 0x00, 0x00, 0x00, 0x00, 0x00, 0x00, 0x00, 
  0x00, 0x00, 0x00, 0x00, 0x00, 0x00, 0x00, 0x00, 0x00, 0x00, 0x00, 0x00, 
  0x00, 0x00, 0x00, 0x00, 0x00, 0x00, 0x00, 0x00, 0x00, 0x00, 0x00, 0x00, 
  0x00, 0x00, 0x00, 0x00, 0x00, 0x00, 0x00, 0x00, 0x00, 0x00, 0x00, 0x00, 
  0x00, 0x00, 0x00, 0x00, 0x00, 0x00, 0x00, 0x00, 0x00, 0x00, 0x00, 0x00, 
  0x00, 0x00, 0x00, 0x00, 0x00, 0x00, 0x00, 0x00, 0x00, 0x00, 0x00, 0x00, 
  0x00, 0x00, 0x00, 0x00, 0x00, 0x00, 0x00, 0x00, 0x00, 0x00, 0x00, 0x00, 
  0x00, 0x00, 0x00, 0x00, 0x00, 0x00, 0x00, 0x00, 0x00, 0x00, 0x00, 0x00, 
  0x00, 0x00, 0x00, 0x00, 0x00, 0x00, 0x00, 0x00, 0x00, 0x00, 0x00, 0x00, 
  0x00, 0x00, 0x00, 0x00, 0x00, 0x00, 0x00, 0x00, 0x00, 0x00, 0x00, 0x00, 
  0x00, 0x00, 0x00, 0x00, 0x00, 0x00, 0x00, 0x00, 0x00, 0x00, 0x00, 0x00, 
  0x00, 0x00, 0x00, 0x00, 0x00, 0x00, 0x00, 0x00, 0x00, 0x00, 0x00, 0x00, 
  0x00, 0x00, 0x00, 0x00, 0x00, 0x00, 0x00, 0x00, 0x00, 0x00, 0x00, 0x00, 
  0x00, 0x00, 0x00, 0x00, 0x00, 0x00, 0x00, 0x00, 0x00, 0x00, 0x00, 0x00, 
  0x00, 0x00, 0x00, 0x00, 0x00, 0x00, 0x00, 0x00, 0x00, 0x00, 0x00, 0x00, 
  0x00, 0x00, 0x00, 0x00, 0x00, 0x00, 0x00, 0x00, 0x00, 0x00, 0x00, 0x00, 
  0x00, 0x00, 0x00, 0x00, 0x00, 0x00, 0x00, 0x00, 0x00, 0x00, 0x00, 0x00, 
  0x00, 0x00, 0x00, 0x00, 0x00, 0x00, 0x00, 0x00, 0x00, 0x00, 0x00, 0x00, 
  0x00, 0x00, 0x00, 0x00, 0x00, 0x00, 0x00, 0x00, 0x00, 0x00, 0x00, 0x00, 
  0x00, 0x00, 0x00, 0x00, 0x00, 0x00, 0x00, 0x00, 0x00, 0x00, 0x00, 0x00, 
  0x00, 0x00, 0x00, 0x00, 0x00, 0x00, 0x00, 0x00, 0x00, 0x00, 0x00, 0x00, 
  0x00, 0x00, 0x00, 0x00, 0x00, 0x00, 0x00, 0x00, 0x00, 0x00, 0x00, 0x00, 
  0x00, 0x00, 0x00, 0x00, 0x00, 0x00, 0x00, 0x00, 0x00, 0x00, 0x00, 0x00, 
  0x00, 0x00, 0x00, 0x00, 0x00, 0x00, 0x00, 0x00, 0x00, 0x00, 0x00, 0x00, 
  0x00, 0x00, 0x00, 0x00, 0x00, 0x00, 0x00, 0x00, 0x00, 0x00, 0x00, 0x00, 
  0x00, 0x00, 0x00, 0x00, 0x00, 0x00, 0x00, 0x00, 0x00, 0x00, 0x00, 0x00, 
  0x00, 0x00, 0x00, 0x00, 0x00, 0x00, 0x00, 0x00, 0x00, 0x00, 0x00, 0x00, 
  0x00, 0x00, 0x00, 0x00, 0x00, 0x00, 0x00, 0x00, 0x00, 0x00, 0x00, 0x00, 
  0x00, 0x00, 0x00, 0x00, 0x00, 0x00, 0x00, 0x00, 0x00, 0x00, 0x00, 0x00, 
  0x00, 0x00, 0x00, 0x00, 0x00, 0x00, 0x00, 0x00, 0x00, 0x00, 0x00, 0x00, 
  0x00, 0x00, 0x00, 0x00, 0x00, 0x00, 0x00, 0x00, 0x00, 0x00, 0x00, 0x00, 
  0x00, 0x00, 0x00, 0x00, 0x00, 0x00, 0x00, 0x00, 0x00, 0x00, 0x00, 0x00, 
  0x00, 0x00, 0x00, 0x00, 0x00, 0x00, 0x00, 0x00, 0x00, 0x00, 0x00, 0x00, 
  0x00, 0x00, 0x00, 0x00, 0x00, 0x00, 0x00, 0x00, 0x00, 0x00, 0x00, 0x00, 
  0x00, 0x00, 0x00, 0x00, 0x00, 0x00, 0x00, 0x00, 0x00, 0x00, 0x00, 0x00, 
  0x00, 0x00, 0x00, 0x00, 0x00, 0x00, 0x00, 0x00, 0x00, 0x00, 0x00, 0x00, 
  0x00, 0x00, 0x00, 0x00, 0x00, 0x00, 0x00, 0x00, 0x00, 0x00, 0x00, 0x00, 
  0x00, 0x00, 0x00, 0x00, 0x00, 0x00, 0x00, 0x00, 0x00, 0x00, 0x00, 0x00, 
  0x00, 0x00, 0x00, 0x00, 0x00, 0x00, 0x00, 0x00, 0x40, 0x00, 0x00, 0x00, 
  0xc4, 0xa7, 0x0e, 0x37, 0x7e, 0xb2, 0xf2, 0x36, 0x8d, 0x1a, 0x07, 0x37, 
  0xed, 0xd7, 0xf4, 0x36, 0xf8, 0xac, 0x03, 0x37, 0xfd, 0x51, 0x10, 0x37, 
  0x1f, 0x70, 0x05, 0x37, 0xbf, 0xb5, 0xf8, 0x36, 0xbc, 0x13, 0xfb, 0x36, 
  0x73, 0x43, 0x09, 0x37, 0xac, 0x32, 0x0b, 0x37, 0x4d, 0x13, 0x0a, 0x37, 
  0x06, 0x7b, 0x05, 0x37, 0xa5, 0x53, 0x09, 0x37, 0xaf, 0xf4, 0xea, 0x36, 
  0xc6, 0x96, 0xf8, 0x36, 0xcc, 0x7d, 0xec, 0x36, 0x08, 0xcb, 0xec, 0x36, 
  0xb2, 0xec, 0x0a, 0x37, 0x06, 0x63, 0xe8, 0x36, 0xa1, 0x73, 0x06, 0x37, 
  0xe2, 0x99, 0x09, 0x37, 0x5b, 0xbb, 0x08, 0x37, 0x8b, 0x41, 0xe2, 0x36, 
  0x68, 0x43, 0x13, 0x37, 0x3c, 0x77, 0x01, 0x37, 0xa4, 0x7e, 0xf5, 0x36, 
  0x67, 0x28, 0x02, 0x37, 0xf9, 0xfc, 0xf8, 0x36, 0x9c, 0x4e, 0xfc, 0x36, 
  0xdc, 0x85, 0x0b, 0x37, 0xcf, 0x16, 0xfe, 0x36, 0x66, 0x3f, 0x00, 0x37, 
  0x17, 0x7b, 0xfe, 0x36, 0x62, 0x1c, 0x06, 0x37, 0xfc, 0x55, 0xf1, 0x36, 
  0xf9, 0xf1, 0x09, 0x37, 0x82, 0xa9, 0x02, 0x37, 0x1d, 0x4a, 0xff, 0x36, 
  0x2b, 0x7c, 0x0a, 0x37, 0xde, 0x43, 0xf2, 0x36, 0xfb, 0xbe, 0x05, 0x37, 
  0xb8, 0x04, 0x0b, 0x37, 0xbb, 0x29, 0x01, 0x37, 0x29, 0x47, 0x03, 0x37, 
  0x0d, 0x6c, 0x04, 0x37, 0x1f, 0x97, 0xf7, 0x36, 0x58, 0xf0, 0x06, 0x37, 
  0x10, 0x14, 0x0e, 0x37, 0x43, 0x1f, 0x0b, 0x37, 0x58, 0xc5, 0xea, 0x36, 
  0x95, 0x12, 0xfd, 0x36, 0xb8, 0x40, 0x03, 0x37, 0xfd, 0xc2, 0x00, 0x37, 
  0xe8, 0x40, 0xfc, 0x36, 0x2c, 0xc6, 0x08, 0x37, 0xd4, 0xf5, 0x0a, 0x37, 
  0x50, 0x33, 0x0a, 0x37, 0xc1, 0x4c, 0x05, 0x37, 0xef, 0xd2, 0x04, 0x37, 
  0x9e, 0x45, 0x03, 0x37, 0xe6, 0x0f, 0x03, 0x37, 0x97, 0xb1, 0x06, 0x37, 
  0x0d, 0x00, 0x0c, 0x37, 0x12, 0x00, 0x00, 0x00, 0x74, 0x66, 0x6c, 0x2e, 
  0x70, 0x73, 0x65, 0x75, 0x64, 0x6f, 0x5f, 0x71, 0x63, 0x6f, 0x6e, 0x73, 
  0x74, 0x34, 0x00, 0x00, 0x01, 0x00, 0x00, 0x00, 0x40, 0x00, 0x00, 0x00, 
  0xf6, 0xfb, 0xff, 0xff, 0x00, 0x00, 0x00, 0x01, 0x14, 0x00, 0x00, 0x00, 
  0xa8, 0x01, 0x00, 0x00, 0x05, 0x00, 0x00, 0x00, 0x00, 0x00, 0x00, 0x09, 
  0xb4, 0x01, 0x00, 0x00, 0x5c, 0xfb, 0xff, 0xff, 0x08, 0x00, 0x00, 0x00, 
  0x0c, 0x01, 0x00, 0x00, 0x20, 0x00, 0x00, 0x00, 0x00, 0x00, 0x00, 0x00, 
  0x00, 0x00, 0x00, 0x00, 0x00, 0x00, 0x00, 0x00, 0x00, 0x00, 0x00, 0x00, 
  0x00, 0x00, 0x00, 0x00, 0x00, 0x00, 0x00, 0x00, 0x00, 0x00, 0x00, 0x00, 
  0x00, 0x00, 0x00, 0x00, 0x00, 0x00, 0x00, 0x00, 0x00, 0x00, 0x00, 0x00, 
  0x00, 0x00, 0x00, 0x00, 0x00, 0x00, 0x00, 0x00, 0x00, 0x00, 0x00, 0x00, 
  0x00, 0x00, 0x00, 0x00, 0x00, 0x00, 0x00, 0x00, 0x00, 0x00, 0x00, 0x00, 
  0x00, 0x00, 0x00, 0x00, 0x00, 0x00, 0x00, 0x00, 0x00, 0x00, 0x00, 0x00, 
  0x00, 0x00, 0x00, 0x00, 0x00, 0x00, 0x00, 0x00, 0x00, 0x00, 0x00, 0x00, 
  0x00, 0x00, 0x00, 0x00, 0x00, 0x00, 0x00, 0x00, 0x00, 0x00, 0x00, 0x00, 
  0x00, 0x00, 0x00, 0x00, 0x00, 0x00, 0x00, 0x00, 0x00, 0x00, 0x00, 0x00, 
  0x00, 0x00, 0x00, 0x00, 0x00, 0x00, 0x00, 0x00, 0x00, 0x00, 0x00, 0x00, 
  0x00, 0x00, 0x00, 0x00, 0x00, 0x00, 0x00, 0x00, 0x00, 0x00, 0x00, 0x00, 
  0x00, 0x00, 0x00, 0x00, 0x00, 0x00, 0x00, 0x00, 0x00, 0x00, 0x00, 0x00, 
  0x00, 0x00, 0x00, 0x00, 0x00, 0x00, 0x00, 0x00, 0x00, 0x00, 0x00, 0x00, 
  0x00, 0x00, 0x00, 0x00, 0x00, 0x00, 0x00, 0x00, 0x00, 0x00, 0x00, 0x00, 
  0x00, 0x00, 0x00, 0x00, 0x00, 0x00, 0x00, 0x00, 0x00, 0x00, 0x00, 0x00, 
  0x00, 0x00, 0x00, 0x00, 0x00, 0x00, 0x00, 0x00, 0x00, 0x00, 0x00, 0x00, 
  0x00, 0x00, 0x00, 0x00, 0x00, 0x00, 0x00, 0x00, 0x00, 0x00, 0x00, 0x00, 
  0x00, 0x00, 0x00, 0x00, 0x00, 0x00, 0x00, 0x00, 0x00, 0x00, 0x00, 0x00, 
  0x00, 0x00, 0x00, 0x00, 0x00, 0x00, 0x00, 0x00, 0x00, 0x00, 0x00, 0x00, 
  0x00, 0x00, 0x00, 0x00, 0x00, 0x00, 0x00, 0x00, 0x00, 0x00, 0x00, 0x00, 
  0x00, 0x00, 0x00, 0x00, 0x00, 0x00, 0x00, 0x00, 0x00, 0x00, 0x00, 0x00, 
  0x00, 0x00, 0x00, 0x00, 0x20, 0x00, 0x00, 0x00, 0x9e, 0xda, 0xfb, 0x3a, 
  0x0a, 0x11, 0x01, 0x3b, 0x9f, 0x31, 0x0e, 0x3b, 0xe4, 0x1f, 0x06, 0x3b, 
  0x4e, 0x30, 0x02, 0x3b, 0xa1, 0x1a, 0x07, 0x3b, 0xc3, 0x50, 0x06, 0x3b, 
  0x66, 0x30, 0xfc, 0x3a, 0x82, 0x97, 0x04, 0x3b, 0x56, 0xf0, 0x14, 0x3b, 
  0xbc, 0x9c, 0x0a, 0x3b, 0xef, 0x91, 0x08, 0x3b, 0x6e, 0xf8, 0x08, 0x3b, 
  0x24, 0xed, 0x06, 0x3b, 0xb7, 0xbc, 0xff, 0x3a, 0xe6, 0x1b, 0x09, 0x3b, 
  0x72, 0x92, 0x06, 0x3b, 0xe2, 0xc5, 0x08, 0x3b, 0x7b, 0x5c, 0x0c, 0x3b, 
  0x9f, 0x87, 0x0b, 0x3b, 0x45, 0xb6, 0x04, 0x3b, 0x3e, 0x6b, 0x00, 0x3b, 
  0x1c, 0x7e, 0x03, 0x3b, 0x89, 0x87, 0x0c, 0x3b, 0x72, 0x05, 0x0b, 0x3b, 
  0x34, 0x67, 0x08, 0x3b, 0x58, 0xb5, 0x05, 0x3b, 0x51, 0x1e, 0x06, 0x3b, 
  0x26, 0x51, 0x01, 0x3b, 0xd2, 0xdf, 0x06, 0x3b, 0x5b, 0x82, 0x09, 0x3b, 
  0xe5, 0x46, 0x00, 0x3b, 0x12, 0x00, 0x00, 0x00, 0x74, 0x66, 0x6c, 0x2e, 
  0x70, 0x73, 0x65, 0x75, 0x64, 0x6f, 0x5f, 0x71, 0x63, 0x6f, 0x6e, 0x73, 
  0x74, 0x33, 0x00, 0x00, 0x02, 0x00, 0x00, 0x00, 0x20, 0x00, 0x00, 0x00, 
  0x40, 0x00, 0x00, 0x00, 0xce, 0xfd, 0xff, 0xff, 0x00, 0x00, 0x00, 0x01, 
  0x14, 0x00, 0x00, 0x00, 0xa4, 0x01, 0x00, 0x00, 0x04, 0x00, 0x00, 0x00, 
  0x00, 0x00, 0x00, 0x02, 0xb0, 0x01, 0x00, 0x00, 0x34, 0xfd, 0xff, 0xff, 
  0x08, 0x00, 0x00, 0x00, 0x08, 0x01, 0x00, 0x00, 0x20, 0x00, 0x00, 0x00, 
  0x00, 0x00, 0x00, 0x00, 0x00, 0x00, 0x00, 0x00, 0x00, 0x00, 0x00, 0x00, 
  0x00, 0x00, 0x00, 0x00, 0x00, 0x00, 0x00, 0x00, 0x00, 0x00, 0x00, 0x00, 
  0x00, 0x00, 0x00, 0x00, 0x00, 0x00, 0x00, 0x00, 0x00, 0x00, 0x00, 0x00, 
  0x00, 0x00, 0x00, 0x00, 0x00, 0x00, 0x00, 0x00, 0x00, 0x00, 0x00, 0x00, 
  0x00, 0x00, 0x00, 0x00, 0x00, 0x00, 0x00, 0x00, 0x00, 0x00, 0x00, 0x00, 
  0x00, 0x00, 0x00, 0x00, 0x00, 0x00, 0x00, 0x00, 0x00, 0x00, 0x00, 0x00, 
  0x00, 0x00, 0x00, 0x00, 0x00, 0x00, 0x00, 0x00, 0x00, 0x00, 0x00, 0x00, 
  0x00, 0x00, 0x00, 0x00, 0x00, 0x00, 0x00, 0x00, 0x00, 0x00, 0x00, 0x00, 
  0x00, 0x00, 0x00, 0x00, 0x00, 0x00, 0x00, 0x00, 0x00, 0x00, 0x00, 0x00, 
  0x00, 0x00, 0x00, 0x00, 0x00, 0x00, 0x00, 0x00, 0x00, 0x00, 0x00, 0x00, 
  0x00, 0x00, 0x00, 0x00, 0x00, 0x00, 0x00, 0x00, 0x00, 0x00, 0x00, 0x00, 
  0x00, 0x00, 0x00, 0x00, 0x00, 0x00, 0x00, 0x00, 0x00, 0x00, 0x00, 0x00, 
  0x00, 0x00, 0x00, 0x00, 0x00, 0x00, 0x00, 0x00, 0x00, 0x00, 0x00, 0x00, 
  0x00, 0x00, 0x00, 0x00, 0x00, 0x00, 0x00, 0x00, 0x00, 0x00, 0x00, 0x00, 
  0x00, 0x00, 0x00, 0x00, 0x00, 0x00, 0x00, 0x00, 0x00, 0x00, 0x00, 0x00, 
  0x00, 0x00, 0x00, 0x00, 0x00, 0x00, 0x00, 0x00, 0x00, 0x00, 0x00, 0x00, 
  0x00, 0x00, 0x00, 0x00, 0x00, 0x00, 0x00, 0x00, 0x00, 0x00, 0x00, 0x00, 
  0x00, 0x00, 0x00, 0x00, 0x00, 0x00, 0x00, 0x00, 0x00, 0x00, 0x00, 0x00, 
  0x00, 0x00, 0x00, 0x00, 0x00, 0x00, 0x00, 0x00, 0x00, 0x00, 0x00, 0x00, 
  0x00, 0x00, 0x00, 0x00, 0x00, 0x00, 0x00, 0x00, 0x00, 0x00, 0x00, 0x00, 
  0x00, 0x00, 0x00, 0x00, 0x00, 0x00, 0x00, 0x00, 0x00, 0x00, 0x00, 0x00, 
  0x00, 0x00, 0x00, 0x00, 0x20, 0x00, 0x00, 0x00, 0xf5, 0x75, 0x2d, 0x37, 
  0x12, 0xc9, 0x31, 0x37, 0x2d, 0xde, 0x43, 0x37, 0xb1, 0xc0, 0x38, 0x37, 
  0xc6, 0x54, 0x33, 0x37, 0x14, 0x1a, 0x3a, 0x37, 0x03, 0x04, 0x39, 0x37, 
  0x0a, 0xb1, 0x2d, 0x37, 0x32, 0xa4, 0x36, 0x37, 0xad, 0x28, 0x4d, 0x37, 
  0x31, 0xef, 0x3e, 0x37, 0x0c, 0x1f, 0x3c, 0x37, 0x3c, 0xac, 0x3c, 0x37, 
  0x6b, 0xdb, 0x39, 0x37, 0xa1, 0x22, 0x30, 0x37, 0x17, 0xdd, 0x3c, 0x37, 
  0x7d, 0x5e, 0x39, 0x37, 0x9b, 0x66, 0x3c, 0x37, 0xf3, 0x57, 0x41, 0x37, 
  0xbe, 0x32, 0x40, 0x37, 0x92, 0xce, 0x36, 0x37, 0xb1, 0xe4, 0x30, 0x37, 
  0x94, 0x20, 0x35, 0x37, 0x41, 0x93, 0x41, 0x37, 0x6e, 0x7f, 0x3f, 0x37, 
  0x30, 0xe4, 0x3b, 0x37, 0xed, 0x2d, 0x38, 0x37, 0x86, 0xbe, 0x38, 0x37, 
  0x62, 0x21, 0x32, 0x37, 0x12, 0xc9, 0x39, 0x37, 0x39, 0x6a, 0x3d, 0x37, 
  0xa0, 0xb2, 0x30, 0x37, 0x12, 0x00, 0x00, 0x00, 0x74, 0x66, 0x6c, 0x2e, 
  0x70, 0x73, 0x65, 0x75, 0x64, 0x6f, 0x5f, 0x71, 0x63, 0x6f, 0x6e, 0x73, 
  0x74, 0x32, 0x00, 0x00, 0x01, 0x00, 0x00, 0x00, 0x20, 0x00, 0x00, 0x00, 
  0x9e, 0xff, 0xff, 0xff, 0x00, 0x00, 0x00, 0x01, 0x14, 0x00, 0x00, 0x00, 
  0x30, 0x00, 0x00, 0x00, 0x03, 0x00, 0x00, 0x00, 0x00, 0x00, 0x00, 0x09, 
  0x3c, 0x00, 0x00, 0x00, 0x04, 0xff, 0xff, 0xff, 0x08, 0x00, 0x00, 0x00, 
  0x10, 0x00, 0x00, 0x00, 0x01, 0x00, 0x00, 0x00, 0x00, 0x00, 0x00, 0x00, 
  0x00, 0x00, 0x00, 0x00, 0x01, 0x00, 0x00, 0x00, 0x3d, 0x96, 0x5a, 0x3b, 
  0x12, 0x00, 0x00, 0x00, 0x74, 0x66, 0x6c, 0x2e, 0x70, 0x73, 0x65, 0x75, 
  0x64, 0x6f, 0x5f, 0x71, 0x63, 0x6f, 0x6e, 0x73, 0x74, 0x31, 0x00, 0x00, 
  0x02, 0x00, 0x00, 0x00, 0x01, 0x00, 0x00, 0x00, 0x20, 0x00, 0x00, 0x00, 
  0x00, 0x00, 0x16, 0x00, 0x1c, 0x00, 0x18, 0x00, 0x17, 0x00, 0x10, 0x00, 
  0x0c, 0x00, 0x08, 0x00, 0x00, 0x00, 0x00, 0x00, 0x00, 0x00, 0x07, 0x00, 
  0x16, 0x00, 0x00, 0x00, 0x00, 0x00, 0x00, 0x01, 0x14, 0x00, 0x00, 0x00, 
  0x30, 0x00, 0x00, 0x00, 0x02, 0x00, 0x00, 0x00, 0x00, 0x00, 0x00, 0x02, 
  0x3c, 0x00, 0x00, 0x00, 0x7c, 0xff, 0xff, 0xff, 0x08, 0x00, 0x00, 0x00, 
  0x10, 0x00, 0x00, 0x00, 0x01, 0x00, 0x00, 0x00, 0x00, 0x00, 0x00, 0x00, 
  0x00, 0x00, 0x00, 0x00, 0x01, 0x00, 0x00, 0x00, 0x88, 0x56, 0x57, 0x37, 
  0x11, 0x00, 0x00, 0x00, 0x74, 0x66, 0x6c, 0x2e, 0x70, 0x73, 0x65, 0x75, 
  0x64, 0x6f, 0x5f, 0x71, 0x63, 0x6f, 0x6e, 0x73, 0x74, 0x00, 0x00, 0x00, 
  0x01, 0x00, 0x00, 0x00, 0x01, 0x00, 0x00, 0x00, 0x00, 0x00, 0x16, 0x00, 
  0x20, 0x00, 0x1c, 0x00, 0x1b, 0x00, 0x14, 0x00, 0x10, 0x00, 0x0c, 0x00, 
  0x00, 0x00, 0x00, 0x00, 0x08, 0x00, 0x07, 0x00, 0x16, 0x00, 0x00, 0x00, 
  0x00, 0x00, 0x00, 0x01, 0x18, 0x00, 0x00, 0x00, 0x2c, 0x00, 0x00, 0x00, 
  0x4c, 0x00, 0x00, 0x00, 0x01, 0x00, 0x00, 0x00, 0x00, 0x00, 0x00, 0x09, 
  0x64, 0x00, 0x00, 0x00, 0x02, 0x00, 0x00, 0x00, 0xff, 0xff, 0xff, 0xff, 
  0x19, 0x00, 0x00, 0x00, 0x0c, 0x00, 0x0c, 0x00, 0x00, 0x00, 0x00, 0x00, 
  0x08, 0x00, 0x04, 0x00, 0x0c, 0x00, 0x00, 0x00, 0x08, 0x00, 0x00, 0x00, 
  0x14, 0x00, 0x00, 0x00, 0x01, 0x00, 0x00, 0x00, 0x80, 0xff, 0xff, 0xff, 
  0xff, 0xff, 0xff, 0xff, 0x00, 0x00, 0x00, 0x00, 0x01, 0x00, 0x00, 0x00, 
  0x81, 0x80, 0x80, 0x3b, 0x1e, 0x00, 0x00, 0x00, 0x73, 0x65, 0x72, 0x76, 
  0x69, 0x6e, 0x67, 0x5f, 0x64, 0x65, 0x66, 0x61, 0x75, 0x6c, 0x74, 0x5f, 
  0x6b, 0x65, 0x72, 0x61, 0x73, 0x5f, 0x74, 0x65, 0x6e, 0x73, 0x6f, 0x72, 
  0x3a, 0x30, 0x00, 0x00, 0x02, 0x00, 0x00, 0x00, 0x01, 0x00, 0x00, 0x00, 
  0x19, 0x00, 0x00, 0x00, 0x01, 0x00, 0x00, 0x00, 0x10, 0x00, 0x00, 0x00, 
  0x0c, 0x00, 0x10, 0x00, 0x0f, 0x00, 0x00, 0x00, 0x08, 0x00, 0x04, 0x00, 
  0x0c, 0x00, 0x00, 0x00, 0x09, 0x00, 0x00, 0x00, 0x04, 0x00, 0x00, 0x00, 
  0x00, 0x00, 0x00, 0x09, 
};

const unsigned int g_model_len = 8584;
